#map = affine_map<(d0, d1) -> (d0, d1)>
#map1 = affine_map<(d0, d1) -> (d1, d0)>
#map2 = affine_map<(d0, d1, d2) -> (0, d1, d2)>
#map3 = affine_map<(d0, d1, d2) -> (d0, d1, d2)>
#map4 = affine_map<(d0, d1, d2) -> (d1, d2)>
#map5 = affine_map<(d0, d1, d2) -> (d2)>
#map6 = affine_map<(d0, d1, d2, d3) -> (d0, d1, d2, d3)>
#map7 = affine_map<(d0, d1, d2, d3) -> (d0, d2, d1, d3)>
#map8 = affine_map<(d0, d1, d2, d3) -> (d0, d1, d3, d2)>
#map9 = affine_map<(d0, d1, d2, d3) -> (0, d1, d2, d3)>
#map10 = affine_map<(d0, d1, d2, d3) -> ()>
#map11 = affine_map<(d0, d1, d2, d3) -> (d0, d1, d2, 0)>
#map12 = affine_map<(d0, d1, d2, d3) -> (0, d1, d2, 0)>
module attributes {torch.debug_module_name = "MultiHeadSelfAttention"} {
  ml_program.global private mutable @global_seed(dense<0> : tensor<i64>) : tensor<i64>
  func.func @forward(%arg0: tensor<1x64x128xf32>) -> tensor<1x64x128xf32> {
    %cst = arith.constant dense<"0xFB94A63DD8E57EBD09624C3D5F99FD3C56E5863D167C803D5AFA47BC0DADACBDAE0490BC9237E03B2DA9DFBC91EA3CBB9E81033D5A02EE3C135DD6BC64A9E4BCBB5F80BD375B973D4C28693D5E3EB2BD0F7C803DB0629BBCB237B4BD4984FABBD0A78EBDFB10743D1E3381BCF7B2A83C4D3D1BBC5D86E13CE534B0BD9895BABC05813EBD97F1543D6D1B5CBD85119CBD98BE033DC66426BC0D0F653D38AB86BD14C65B3D55EE0CBD28B42F3D5B48EABC8F383B3DDAE3ACBD4349C03C702FB3BD0C018BBD69D8323DAE0D433D4147ED3CB60F263D2C67173BAFEC3DBD32866E3D77C11FBD965C4ABD7E1259BDD542443D2AF318BD6E78E33CC1728ABC2510933DFAA7A73D7DAFAD3D6B228F3D14ABC13C2C43013DDABD713CCF8972BC03C409BD8EA1023CC6DE7ABDDCAE8F3D75F6A7BD84A89E3D0D9F293D4A0C95BD784ABDBB370548BDCB933C3DD3F0F6BC746C82BDBAD3A13D7810A1BD2161523D0EE2BD3C6BB2A73C2CA0AE3DF13466BD3846F1BC0F40AF3DD369923D4D25483D20DD5B3DE5A6943B909FCEBB15AC7E3C3B04AFBDCD4C693C8B8D90BD9F3881BCDE43F3BCF40B24BCF2344A3D16AD88BDA354B4BDDDB3ACBDE89075BDEBA39BBCBEC0A6BCC75AAFBD458D343B42ABA03DC84D573CA5665E3B22FD8C3DAF449FBC0EA3BD3CADB3AD3D91A437BC7FF5163D01AE093DCBA29ABDB298913D880893BD65541FBCC50B6B3D2B53753D437D5A3D7D9EE6BC3D291B3D822A303D0DFEB53C326EA9BC5F0A12BDC7917C3D8BC8ACBD0765A6BDF5EE333D170695BBE811A73D87D3853D610568BDB2B831BD255385BDDEEA933D5F1255BDED4D393D8E91AC3A518186BD9FD8543D700F9A3D07EA6C3DDE9990BDBBC05FBD45EFAE3D01AFE03C0EF7813B84B0733DE3D6D4BC5D59863CDDA26E3DC551EE3C097CB4BC90E9CF3CAC667F3CF731EBBB21C70F3D5B878C3D843486BD17FE34BD2F9B5E3D23A60F3D042EB3BC308B83BC71641C3DC5ED213DD61184BD208BE33C254556BDB7B877BDEFACB93CDAC8373D92C7A8BDF550873D02A7ABBDAA94603D8E0B1ABDEE6E4E3D815C013D157BB9BCDA08283D64A2B43D519DFBBC2AFEC5BC1DC6ACBDB80F2FBB78CE883C550E9BBDB8A711BD8B615CBDDC4E933D571F033DED023E3DCBC8293CC7F0ADBDB37877BDF7B081BDABF280BDCA5A17BD0434243D12A61C3D8FB1A73D8B816EBD10AF4CBD96580DBDFFB75ABD04EED9BA447B463D58C1A7BDD557E8BCEC089FBD5E47A03D3A77BFBBCAB92D3C209D6D3C823F9FBDEF5804BC9A5C98BDC9C3C9BCF10A9B3C231137BCB67789BD406F263BBE2163BB0B4BA9BD4DA2B23D07BC19BD40AF2B3D836F89BA379D75BCA85951BC44A739BD8B1A47BD1C5C7DBDB3848F3D22C35A3D565394BD0A2BF5BCB99B34BD2F6027BDC0A5A0BC5EA3AABD934554BD072558BDAE4ED03C3522A8BBA1AAF1BC5C64A5BD27B69FBCEAB9A6BCFA329C3B5D59DA3C11272F3DA709AD3DE5A393BCB0A9543D96E7B4BDFB5165BD80FE2D3DEA74FD3B660FA9BC5CE86E3CCF59B8BC36AAB03D4489423CB0B721B983B3493DC36407BDDFDFA0BD4F1994BD61BF943B7BF98ABC1086B0BDED31663C97E17ABD9FA0AD3D560DA03D9C24A2BD35CEAB3D0828003C9480C73C43779FBC0756493DE000063D0D1FC9BC220D85BDB30BC43C44E0D23C2C4AA93D8E239FBDBA2A833DBA11453C45BE58BCB9203CBD6E30173D84E86A3D4028AA3C22595CBC300E91BDBDFF96BCB57B98BDECF0A0BD7ED28FBD1749D83C5FC25EBD7B44FCBCE1C0EDBCA575913DCA17413D46C2183C8D3774BBD4EFB33C28A880BD63ED9F3D85705DBD0450543DBD75383C566D24BD9715193D1F7F943A6CCFEC3C9BABA7BD6901A3BD8066BB3C73A4C5BC927B6B3D032675BD2FC2903DC60F64BC3988123D3DF261BDB9D1E33C7AFD413DAE7C2F3D6383AF3D4CF3AABD19E869BBE0E50D3DCC672BBD5E4730BDF4C3983D2DD7B33D18F18C3BF103B2BDAA65E83BD1AADABCEEAA6C3D6A94913D07D43C3C661A2EBC73EB4BBD069C01BD48F80B3C0E442DBD6BD2B23DC28235BD90DDD3BB71D7663DB960B4BB21DF8DBDC63500BC7B96A4BDAAF69B3DC7DDD0BC05AFF63CED80913C7D78C3BCB6579AB9F6BA483DEB5B0C3DCA50A83B203DA13D48E4423D4B936F3D1161B23C398A51BC10E58B3D6FAAF4BC1045A2BDCD3D12BDB14E3F3DEC8A86BD4217353DC8AD403C23547EBCA41FA93CDA752BBDE1FD3CBD9077163D5DF3D1BC5B8D11BD15307FBD326390BD63978A3DBAA1423DE9959C3DB2D0613D245C96BDCD09803C950605BD8CCD743DAF3F35BC176AE3BC94AB0E3D6ACB9E3DC21A7FBD8DD18C3DD516AA3DF1C3A93D98E38D3D59275ABD59999D3D9D226A3D4D3B9BBD7C8E58BD948CAFBD7CEFA93D79EC113D739DCD3C15E53B3D68F3923D224E1EBD1AF09DBBE463A93D833B17BCD7D483BD99111EBDBF038C3D6ECD8F3DC4361E3DAED5F43C83715F3D7BE879BD773885BA3F8B933DA5237ABDDA8740BDEE46AFBD80A85FBDC2C1093C30A5ABBD73AB2FBDE1948A3DEB6A8DBD3DB85C3CDAB1B0BDDAD0A2BC97D32F39B6AA723DDECC87BD98925FBD2C4DAF3CBF7E7DBD5463783DA29E333DA4E3573D93527D3D344AA93D2381FC3C10F8153D3DA284BD6DDC7B3C2E1DD43CEE54C83C7DDFADBC17A03EBB7FB4A7BDD232253CA343DB3B68F3813DF949AFBD002F243C77D413BD1C28713D90C89A3CCED8613C82CB91BD5656AF3D4445FE3CCEC2973D2229EEBCB813923DD8AF3EBDE435663D8EECB4BD3EC2EABC45F82B3D76341B3CE93B8EBC1EFBB4BCD35E8ABC3D0412BD67BBE83A3B2A2CBD432078BD612B823B2558743DB17C31BD4BB34FBC973820BD72B779BCEEC3A9BB6A90033D53AB49BD7BF89D3D300D62BD894DBE3C791A743C1DF7853DAD139F3DA63E173CAFE5F73B2723753CABE0E2BC63BA0DBD5FFAA6BAFEFE15BC9C9C8EBDE548143C1386593D2B072B3BC10AC33CA2319B3D3175D03C24E1773D87F13E3D517F1B3DD150A93D2B809FBC50035FBC2CB8ED3B5724173D74360E3BBCB93E3D87401BBB18ADBC3C9215323D2DB6AEBD68C913BD8372473D1B566BBD71CF213DA64D99BDEA62A33DB52F0F3C87E4B33D33CA933DDE59A03CD9EA1E3DD2FA993DE2DE333C69ABA73D2A6681BD694CC6BCC34F543B66A6EABB88D0283D6B45523D25F425BDA19810BD4FA47BBDDE7636BD487E383D5A0EEE3AF413E33AF1AB6B3C9921D5BC890B3D3CFF90B63C225B32BDD39E843C71F0B1BDECD4E43C9B33833D895955BDACCD983D956C463DECC4A1BC47BD883D9DBD31BDB705A73D68FDAB3DA109B3BD5C0165BD051D273BA1757B3D44F484BD856E2C3D4664643DF0728D3A2045A73C6F278DBD0F888CBDCD9D73BD38F841BD8C39B8BB10D56FBDFAFE57BD7AAF413D9C3992BD54380A3A380899BD5C1B52BC54F5A0BDCB77063DEB7676BD9F37F83C01DF15BD1B94113D0D3D683C27DB323C5A4BDBBC555BEFBCB0A874381257873DD2154C3B4C468FBDE29471BD4DAB8EBC6249483DEB219C3C09D26BBD97A98A3DA41E7ABAA0FBB43CD5368D3CB5B2D1BC02EA91BDD15290BDBB6BAFBB770E583D638770BD7F9A2EBD45AA5FBDCF2460BDEBD7D93CEC96393DFA59C6BC74082ABD8909CCBCDDED7F3D7E603A3D9698A13D412159BD4E3360BDA59ED93B67212A3DD3113F3D4B298C3C96CB293D262DCD3C2C7330BD177CB03DC6C1ACBCCFE625BD37FCEC3CA6526FBC4F8E9BBCB5D80FBD1FDB9F3CC61B42BDAD84B2BDB1C89F3C27258FBD577074BD1E8D5ABD353393BD2BC0613D78A85FBC59F0F9BCE95AA83C89634C3D6038EF3C5876B03DD83E5F3C5C0883BD97C12D3D960C843DA9813C3DCEDE763DA58298BDF3ACA33D2171B2BBEAE990BD3A39A3BD36A7A63D6043C13BAE0B2ABD495E923DEF32A13D1E5E9FBBC68D42B92A50403D79B873BD0FAA783D5F4F353BC48884BD9000A53D0510203DAED86A3DEB77B33DAE16B33B5500963D5169A3BD1E60A73D7F5E723B2A22B03DBB7B073DFF478EBC34FB6BBD5D61853D212581BB390B18BBF4E537BDC7748EBD8EBC243DCEA1703DC25A27BD1614EC3C0926FB3A45E3A0BD1CB1633B4F6BA0BD3AEB8ABB152A723C1CE9AEBDAB6DE3BC91981EBDF786BA3C2DB89C3D4024913B207647BBB1B58D3C2B26913D4B55073D6FFBFEBCC752973C8D3BF03BF07437BD31CDB13CE14329BDD4A25CBDA373B0BDE08DF23A18A078BAB985ADBD502D9937C32C7EBC528C86BCDDDE80BC28F9A2BB01CEA2BD4C42013CFCE01D3C1663C5BC060B09BDB0FC9A3CE2B296BC4284793DAAB5B83C2226D43C9F006FBC4BB71CBD5F0F1D3D0A965F3CB314583D34325B3DAE5FA4BCC2D713BD48D5A4BD854E963DEAFAF8BCDF23403D5B97613DDD6B533D9F41FE3BEBC48DBC9D33953DD88A9ABD7932863D0AD2473DF2E9833DA1DA8BBC2546AD3D1A0200BDB21A433D6FC927BD81E8993D19144CBC9262BA3C63AFA8BD92D18EBD47F9CA3CF76B2DBD056B893D657F0A3C95FDA3BD6043A8BCCB5DAA3D4779AC3D221546BD3818FC39557D7BBD766126BD749CB3BDFA92ACBDE64809BDC9C38DBD383488BDA3B7A3BDC463F0BC1A0D16BD0132163D369E623DA1AEA1BDD2E4603D846B7EBD6CF8663D3D85853D477A8A3DEC879A3DB64B23BC17F445BD0180513D9CF0B13DFE42773D77F12FBCFB34523D9D9F893D2BCB963DF45BA7BDBF9162BDBBC0F4B957659B3C38355B3D734D073CF39CA43D4CE999BD2AEC9ABD055C273D1984AC3C64D26F3D978B3D3D525D9B3C33949DBCA828793D3C3DA93D089DB4BD0326E23B4D3633BDA1E5423D2A65FC3C4F9E9B3C62F59DBCFF34A33B32CF84BB3E2402BDD103A5BD1CF589BDDD7F1E3D5CD348BD436A9C3C505C0F3D8EBFDCBCDB3B6FBD096B4FBD98A7C83B4E30BDBBCF0EDE3C04626F3DA3721CBD80B93E3CDFAAD83BAACA95BBC556F5BC70BFC43CDAFF48BDF2FA0B3D7D057FBD8767CE3B3915ABBD02AFA03CF137083C0BDF713B81BA4BBD36B0ADBDF692A23D5288AEBDD30737BDC2C9FABCF7C9983DEC50C53C3FCCA83D14A6253C8022033DAC11DCBCFB60FD3CAB21883D057B9BBC1AE8A13CD59E0BBC28EF483D4743173D526A6EBCE85AEC3CF1B0D53CA838113D28C891BD328108BDDF4BB73B4A37FCBCC880263D6D1393BD21DED5BBFA8A843D6FE1CA3B6B778CBDD2399CBD759A053DD30CCDBC12FB54BDFC402FBD2C41813C52B9673D20979ABDC02BA93DF53905BDFFF6B3BD427CEF3CBA5C68BDF91D5DBDD5BDAB3D9E4E733DB93642BD2E1E71BAE11B95BD580E45BD38BBE5BC1CEA3DBDE89023BD9D09E3BC437C573D675643BD75773D3CC22C223D02E6AEBDEF1B2C3D5463AFBD742C4FBDC81646BC0A3B833C08FF013DCBEFA8BD5B4DAE3B8E1C3C3D94AF3ABB7CA339BDBA3B98BC11258E3D1C41F23C68FB27BCFF45DCBC2027783DE80760BD5C86A2BD3125863C51D93B3C5FEF363CAEFD9A3DD506ABBDA719C2BC04A822BD275BA83D54B326BD3ED391BDBD9013BD718F9D3DBC1066BD859810BDCDE76DBDF2F8B23D6DB8AE3D608B8A3D3AB192BD10C8123D655C5E3BA06E68BD27424BBDA87161BD6A90A2BC864F963D8002953D8259AC3DD0A024BDF38A413D9929C4BC16138EBD5B44A93D9D074C3DCD3C0B3D3B3B483D84F573BDCD73A73DA53A913DBC250ABD4214B43DAA9251BB548E17BD7D2A7B3D76F9923C82D250BD03496F3BBF519FBD91F79B3D03E4813D28407BBCF0AD48BD4A43343CD42D5FBDB6FE53BC7750ADBD2E9A9D3D5A04703D5599E3BB37FA6EBCCFDA84BDC3A9483C05079F3D8457503DF005B23CAD6577BD625DA8BCEEFDCCBC947FD03C30F9243BFEA9AE3DDBA2723DF47484BC60E6913CC022FE3CBADA483D424495BD0A4C413B4256E9BBC1894ABD7917B0B8030514BDC3611BBD1FD5A9BDE0BA0DBDA0969EBCA31D08BDC28242BDC68D9F3DC0A565BD9465033DC37897BBD6AF6EBC6087A7BC21ABC83CF7F223BD6A4D25BDA7CE96BD8BA380BDB65E2A3D427B9F3DD5613CBC4571B13D945484BDE70AD5BCD592143DA7C84C3D190C353D12B8E3BC9AF6033D7659723D8433963CD7F202BD5B8FF63B3DC3C83C930678BD61F7ACBD56ED2C3D2AA2433C5DBFB2BD56E5243DD4298BBD246F6DBDBD6659BCB8D6AD3DB16924BC7BF66EBDC5B25A3CEAF0BFBC8DE3663D7691BE3C9CEC0ABDBF0F61BDEC9005BD43E3843AB269B83C2F12A83DC6D15E3D33AC073D6353D4BCB0DE883C79F768BD23A39FBD12484ABDF2B832BC9D62B23DFD91C73C89C36CBDDDE40A3BAF8B46BD6CBC763D6F74AF3D9BEA8D3D10FB7DBD9823963D1F294ABD87488A3C6716D739BE402D3D0A221CBD982F93BD9C4CA03D53CDAD3D2F2E8B3C2DC8DFBCC357B2BCDC17603DA9357FBBA69927BCED99B43D4D75D5BC6582333D9BE23DBD813190BD88F33B3D9C254A3AC86908BD45D6A5BD604C273D7B3211BC966A74BDCEF4A9BD440783BC69F1AF3D0D45A0BDCE1E52BCBF4A543DB2D1E4BCF6D426BDA3C71E3DB751A9BD6FC4843DEFAF53BDCCD261BC94D36C3D0B0549BD9F28A7BC6916473D88A04BBC490D273B2D48ABBCFEA559BD2CE8AC3D8A175CBD92E7753D0EAD4C3CBB3F433D5FC7B4BDD0B069BC3CBF163B5D90B43C87568C3CBA730ABCB9D6513C4B033B3D05E8B33D7C63153D44931C3D981BF9BC61DC4F3D9CC36FBDCCE35BBD304210BDFC20B0BD7850083D2F8DB4BD8C0289BD444F943D041976BD802094BC9E301B3BF67F05BDE7CF30BD07638CBD134D9C3D20062CBCBCACA4BB60CB9A3DFAFBAC3BBD13B4BBD58BD63C819E0F3DAF4A933D82D8813DAAF61B3DF0AFBD3B4B40FEBB4CE60BBD703DAB3D2E30C0BCF51F773C7F59003D393AD33B3916713D13D93DBD8FA856BD91A0EE3CEA3641BD43784A3D44F7ADBDA854AB3DE248163CC371813BED3B1CBD23778A3D38437F3D638599BDB67A4FBD8BA7633DCEB0DABC5BDD8D3C769D7D3D0D07AA3DBF4CAEBDA315D63CC49E5B3C8C087D3D65448EBDF808A9BD66DA923D76D8FD3C83F1AABC0F6933BCBADC1EBDCD4587BC903C6DBCBF73F43B0F17A1BDFC8CF33CE79E9CBD2A7D253D182E093DDA07A93D6DE453BDF07130BDA28B3BBD80B910BDA27146BDC783413DA479983DD77784BD9ED4263D1D7D743C22FAB43DCB8D82BD1334AE3DE83F52BB1C599B3D873E9EBD270D56BC7A8D4C3DE4FE37BD9541BEBC0A668BBD53A7B83CB3DB6ABBFF4C48BCC74489BD4452813D5B8F003DDE67B73CB40F7ABD32D9283D31B7683D8436983D1B0A573DF3879EBDA383563C2D51003B8F32523C1CDA33BCC51C9CBD783007BD41D80F3DB4CE91BDD554BDBC53B4F6BC5F32693DA3A73C3D29A3AB3D4357A73D7036A2BB9D85B2BD133E023C0E9C0EBD91EDE7BC89C142BD7C0534BDEFCF5F3CA553053C2734E7BC0B09A7BB6563653D2A31B13DC971A2BDD10D7BBCF0F098BD1E1B1D3D803D043DC0ECA63DEC23AA3CFA449F3D94F176BD46FE323DBAA230BD2A2E8CBDFF160E3D3CDA3FBDFCCA4C3DC4DC8D3D3717B03DE4A0A4BC0BB662BC4FB23C3CF70FDD3CDEA0A3BD13FC54BD60049F3D638FAFBD399C79BDB766773CC8B6DC3A4CD7863CFF9A7F3CB1E7973C76A4C33BB8B7883DEF176FBD135376BB0D93DC3C2BEC5C3CA777A83D1FD171BDB142523CAA9EA3BCE78932BD69BBB03D2F26B33D5388A73DB26790BC09A7213DCB9584BD209C873D330E6DBC0E1F983DDD90BA3C9146243D6DC023BCBE61213D419DA53D1C7B6A3DFAA90E3C314089BD1A41733D64BECE3CD1C186BD3541703D9702E2BCB7A8EB3C48A665BD61A8A1BD57F0F63CCE25813D5B9F1DBDCA128EBD1D9CA7BDA5238FBC387B3CBD0045AEBD62682D3D6482A6BDB171973DB37388BD29DA4BBC423016BDEAC012BD0746C13B110496BD3CA46A3CE41100BDB77014BD17F3873A1C30963D7EB27E3C4D3354BB15B7753D7E60B43D38E7253D69E1803DD27E233D71F7B13C687536BD3B4176BD649A9ABD301CFEBCBA3FA33D281B9CBC979FD63C6F07813B7F1FFBBB3F84E8BA0B6F0ABC73DCF2BBF71877BD6BA7353D15C013BDCC7415BC0667CD3B1A5A3BBDF83600BC77CEB4BD93EA153D7D5C0BBDB60DA03DC6EDD5BC1FCEDFBC90454ABCFA398EBD232E1CBDB4342CBD1B8B45BDBD2579BABA48A53D2490973CC0DA6EBD179BA7BD94AFC73AC0D145BB079C463D3226E1BC2B52483DDA6F2D3D055240BD036E96BD39F58EBD2735A0BDB4928FBD4160593DDCF454BDD95CF5BC1A7B393C423A91BC0B7F4D3D0942EEBCBF8EA03D3DDE813DC8C0553DD617A33D0FFBAEBDC1DC343D60D8393D3976DABC058611BDDDA90A3CF70ADEBC6A7B393D7C55AD3DBB54A2BDF55C0A3D03238EBD0FEE29BD2977A2BCAB170F3C3146BBBC3451D3BB2F0E7DBDB1E4053C22A0363CC7B88FBD321D063D1DA69F3D8D41893D39FB3BBD491D4B3D0514F03CDD6C08BDA56DD7BB32912D3D1A268E3C493EA4BD271689BC320B193DCE06CABC8BF3803B86FD983D5B8FA23AD393DC3CEC9558BDE2FFACBD23B52D3D7E94B53ADA0BABBC2CFC9C3C374ED4BC5E707E3DF3FC693DF4AC99BD986295BDFA9C9FBDE10260BD4C019D3CF9BF713C7488173C23F25B3DF3A56E3D0DF4BBBB5B01443DF2A2933C30FF1E3C4F1DA7BC1A057F3D32D09C3DF3FC86BD53D04BBD8CA9AB3D402A46BD51757ABDC686833DF66980BD4661A53DEC89BF3C424332BD7FC6463D151B633DD50F313D8C551ABD7856AC3CC8BC893DDD590EBD01B5BCBC230E883D47BA553D584C81BD5D2B88BD2F1A6CBD9BBE923D63D93A3DF9BB1DBD5F56B03D775347BDD9DE8B3D9202FFBC7728103D08E667BC85969DBDC0A9B53C4A0C863C33FF65BD1CFC5EBDAED54ABA8604753DC140AB3DA5FE51BD62DCC8BCA8519A3DE94B8E3DC3555C3DAB7E793DB9D071BB6039E5B9D369E33C6B85A6BDE6ED37BDBB0D9FBDE8744CBDBCFB5A3C624744BD36761D3D4268ADBD69AA2DBCA9D88BBD2249803BE325263BA6838A3D1BAF7BBDA99B593D22948D3D3DFCF03B58D3ADBD12AB963DF05354BDB902A53D155EFEBCC3BC82BD38F9ACBD0F542E3D9ECC97BDE10341BDD2D4AD3DCA656ABDBE7B99BD6331463D04297C3BD55A80BC20630B3C4CEE2A3D62A62ABC89F9A2BD89FA223DCDDEA53D656E313DDDE903BD3740CEBC17D51ABD5EFF97BD932EA1BC4E6EC23AC6441C3D94D135BDF42AF5BCA049AFBD7CCA033DE3EC683DE774403CD06038BD2D85533BEFE2573C2E6E56BDA0B4453DFC0D1CBC0DE17A3D8C9F813CF70AB33D92F9813C4E7C483D079637BD18FAF4BC9644D7BC7DABD4BC5DB5D03C26FA4C3D5DF9423D463A02BC6B548D3D3FCD6A3CDBE6663DE39BB2BC3682DCBC7C343F3D3DBCED3B89752A3DB133983D6AD4A2BD8B268EBA1ECC7D3D0C2B41BDF7FB433DE022A33DD9AC0CBDA116933C7754AD3DC62B053DE2541A3AB874EBBC18FD9A3DCCE70FBD7E27B03C6EE71A3BC028BDBC046F80BDA8F67FBD6588B13D2D72463C8A346BBD98E463BC5280EB3C92F4373D89F3EB3B1ABB47BD31ACC83BFE8D6A3D21659B3D879C47BC8A587D3B945D843D0527A73DFF9D52BC67D0EBBC62728A3DB68928BB4E7818BDF7101DBDB825CE3C423FB0BD0D4EB8BA0D9C3DBDEE47D6BC42DAB03D54B489BD5C7C7FBDF4B589BDF70C8EBD4F571DBDA7678CBD5B29693CACFA473DCEFE893DEF491C3D0728893DF04EAB3BCF478CBC840356BDB312F73AB93B253D619D7C3C0342053D650A09BADE626B3DDEEDDC3C662C8EBDF4AEA7BD5495BA3C576945BDDB338FBD46D9FEBCD79B91BDD89C2DBB200E21BD825D1BBDAAA2A3BD0D4C2ABC0857843D0B89A6BDCF22143D2CD69A3D84EAADBD61D705BDDF3733BD8ADD103D170A3BBC933D0D3DE74505BA14EE303DCA3945BD56379CBD677CE03CC404B33D5134153C177C3FBDF7C125BCE4516C3DB58553BD21116BBDB2C66CBC6421833D5C49AA3D1776EF3B1189D7BC5C8855BD6F2F56BD4001563D7A9229BDF4776ABC3533123D4533363D9A60193D08115A3DAB48983D2D4F843DA3F99FBC9C7131BD5BC8223D674883BD87996C3C7E029FBD978A66BD8173263D9E74FABCD4EA693D1166073CB62E8ABD2EB5A9BDAA417E3DEF9B753980714CBD864867BD361285BDD28B0D3DA7363CBD445A6C3DA3A9803D649A8DBD2A78CA3CD50F35BD35483A3D571E8BBD770A96BD9B242EBD7B84FB3C629226BC31AF1F3D7873A63C1E435B3D580A81BDB81EAEBDA990AABC8623AE3CDFDBF73AD28871BC4B25B23CF248833DFCB683BC6209E53BA00F9ABD15BB9EBC97758D3D378E44BD69A481BA162C6BBC7D7F5BBD4F0B01BD27A44B3C4DD73EBDF3725D3D812A2A3C96B5833D053D9ABBD6E6B03D5E3468BD09C8A5BD7C19C93CD774A93D36A384BD3D56A3BD7A0B12BC83420D3D0F08CBBCD03525BD4369003DCA8E8BBC2133D7BB6BB337BDFFC1293DBEA4FB3CDAA4553D7EA1A7BC12B3CB3C2DF85EBCD2C6843D442B9B3D2C278C3D48C5A0BCB6669C3D03EE083D2C1C35BD25C7913D3F837CBD3FD6DCBC0B0DA8BD0154983D6CC7A23D8C28443D42BB23BCC96CD6BB2E3E8B3DFC1705BDACF557BB67EACFBA8399DEBC8C49973DC10EDC3BD6E22FBCB00D2FBC4C59673DFF38D93C9CF3373D417BA33DC4CD293D07FA913D78D48BBDAA51B0BD4FD5143DDC06093A23887539F654A1BD948D633AE04B5C3DD578BC3CC6B34E3DC21470BD502782BDD8D7A5BDDB9F5A3DEBB0073D12059DBDD286EF3C836359BD2EEF74BD09D9033DDD739B3DE2DFA9BD3A1FA8BCDB561D3D885A463CF0E4F23CE2A05A3DCACC84BD309D78BD9C28A63DB39D87BDF438A93D8EAA9E3DDCA3A23CBB928ABCFB7319BDD9D9AE3D1C4D9A3D061296BD7FCA0B3DB31BB3BD55CD3E3D5F0CBABC2361853D775BA5BDA31BB33D939043BD51829BBD356277BCED495B3DD381F3BCAF69193C6C16B4BD4393513D542D81BC6B66573DB415413D948967BC9E6EB13D326B823B1E741CBD7905323CF250043D958824BB223893BDEDC0913DC40CAF3DCD22FD3A25BB49BC020DA23D295AA4BDC7BDA73CC6B76D3C58D577BD45CBE83C6A1498BCEE34123CE3E18A3D0AFCA13DF19E1CBCF647023D122A943C4512A9BD4FC78BBDEF104BBD7E1EAA3DF43C863D4DFCAE3D1BDCA9BC77AA51BDDD9BD03C4721F4BAB888C1BCF766953BACD66C3DCD87F1BBFA13A83D8834FB3C5A37B3BDB8FAB3BD232984BD4F5EDFBCEC4F14BDC1B534B8DC47283DDE74533C165D63BDA73CA13BAF10B9BC8632863D7C4FAC3C0AECE83C54E3233D9951D83B7C4189BC131906BD6B1883BD10EBADBDAF95EC3CD58AD33C019923BCD7E80A3C42FAAEBD8A3183BDD74ED33CA44AAC3DB72BFFBC88F38BBD5731883DB86E503C3378B03DFA94A1BDD888D7BCF360AFBDBE9F19BD0965ACBD88A83A3DFB54713B3183263DD5C69BBC175813BD60BAA9BD2A776D3D7821873D08768FBD3F0BA23D2E36573CB04DA8BDC04F24BC3BCB0A3D1142C23CA56E89BD603509BD02F58CBDAEC6893DF384843D76F368BDECF6853D2FE3FC3C2938813D84A7B53C2E016E3CE562483DFFEBAF3D0AFB0CBD5054693B254497BD60BCACBD36092B3DFCCD4B3DD739F2BCB40704BB2CF0D73CD987623DA6C253BC9A3E3F3D3DA492BDDA1A0ABCD4F4AEBC4E4309BDB23D5B3D3C2E42BD04977CBD365F3EBC0B8C8ABD2ED109BCD53BA33DFFDB793B1B826E3DF76499BDD76DA63D87F53EBDBE253D3D1BB4023DBF5B873DC71D22BDA146813C621A9A3DA2479D3B7EBCB0BB548ACEBCB878FC3C306844BD964E85BD49E43BBDF8DF343DD551493B4197A03D6CE48BBDF46480BDFC74063C89F3DE3C97CD833D36885E3DE691A63C4F7597BDD86BF2BB1592B0BD24D31F3B2ADB38BD9C2A16BDADE7D53B7F45B43DD484303D1BDC7BBD8221533D086B843DFDCA10BD588F5B3D976166BDCA4BACBD02B61DBD741E043DB466AE3D5195FBBBA0F18E3DBE0A93BCB064653C6EF7FB3C8D37743957C84DBCC5EF8BBDA58E83BD7E00A63DB238713B485BA2BD41F3C43C2027AB3DE8EE883D21A5A83D114F30BC22E2AA3D827A743D0EF5C2BC8385933AFF0B14BCEB3E6EBCD104F4BCC98A8EBD439A93BCA3C3A13DDC6B8B3D615E26BD5031E93C2787903DC704063CC23263BD1DD82ABDE38C213D4F269C3DC034303D9E5AA93CEECA613DA8D6A33D263141BDBADA22BD8E0443BDAC6A203DB27E3FBC70C8A23D5F9F7F3CE1CA4B3D443E18BC4985183D3C50B93BF02FFB3B64AD8E3D3E62C63C06EC41BDEF56E73C587B55BD91EB74BD1DCA2E3D8D3236BDC41027BD8EA2953DD759A1BCCF0263BB27C2BC3C9699F23C6677103DB4EEB0BDB8DA97BC89FC1E3DBFAD7FBD5F5E8B3D4A77073DFA2455BDA62B273CC254493D0444393D71D88B3C9E7AA23DEA85A03D44D3A7BD47CC72BC3630A5BDBF0756BD9F2750BD69289DBC12B3343DF02D8B3C6DE642BD3BB0363D09D712BB67612F3D245281BCAC6D023CEAF782BD3A95B2BDB8489BBD7B6E51BD6D62D1BCEDAB8D3D08BBA4BC62E8C4BCBD73993D30F67E3D50FFB13DE362803DCE480C3CF613663D7036963DC740A13DE62201BDAA6BBCBC21783EBDE3A870BC971C793CDD3F69BD4A6B853D414AEA3C4BA92DBDB43987BD935F23BD268827BD90CA46BD9700173D36695E3DC96D6ABCE611F83C7FDC523DF7376DBD9BFA6BBBFA81903DDAA22FBDE1FBA83D5068FE3C785E1B3D766F67BCFEFC4E3CE690513D04DBE53C8DDD643D25DE153D0062B2BD46D0EABC3E1E2E3C73BFA3BD3C5D183DB3FF3FBDFFB9453DF39A2E3D1D40993DCA26D13CF5241C3DF19C403DF87AB53CCD4710BD14CAF03CE5A18B3DB95BA9BC0FC4303D0F82B43D2734893D6DE97A3D2B4D583D9C9C8E3C2784A43D6A1C2D3CEA5F0F3D2C5B9BBDA1CDC73BDDF0583D967893BD036B83BD4660643DED9DB53C63A20E3D01A1A33A921B9A3DB2A2F5BC49B5A43DBA02DD3C968A323C3868163D9849913C3C80A53DE77F9FBD3AB28ABDE6F530BCB985B13DF0D184BDB93EC8BCDB03B7BC1BACF6BC1844B7BB74919DBDCD658EBD26D73B3CCC3B45BDC6236A3D0DD706BD6A4755BD095525BDB47A0DBDCCFF153DFFA29A3D0F66D8BC7C2E2E3DE3FFAC3CA26598BDC669343DCD093F3DA67F473D033D393CEB32ABBCE26136BD4A10B03D881FB3BD7876123C1AC270BDA58998BDAEC8A03DAC8B94BB5361C8BB54CA863D200EF3BB5B26253C43A11A3D8960A13D9F43AC3D7A78673CF0F9ACBD43DD8DBD62E6DFBC983C84BD9C40013D2A09E03BA922A23D48C3533D0981BBBC34D41FBC641429BD5456103D061BA4BCD6CE7F3DCEDA2F3DB6B53E3D1043993D45B368BC1AD699BD4227653CAA4F1B3D0F1EA63D68C4963CEF043A3D228B403D577C44BDDC7BA23D27F7873BDBF0443D2C232CBDB04CB1BDF2CA813969372C3D2D4CEA3C88A4053DDE8996BDDCD3A1BCE0F952BD3A7D50BDB5A20A3DF9FAB1BD66C708BB68C89B3D8BC577BDC4CE6BBB71A92ABDAEE63CBC8D77A8BDC9BE07BD4D5A26BD3A1B92BD13DE533D1011C1BCE8BDEF3C0633F4BC51D741BD09D0023D427F92BD3301A3BC00650CBB9BAC8ABCF0EB60BD50E9783D0F3E4ABD5BA7283DE9BC973DB20AE33C4AD97B3CFD236B3DE98B763CBFFFF13AC42352BDB6F139BDD97637BD97B5AE3D4F2F553D341893BD634D2A3D554E82BDEDDCC63C3C8C4D3B6EA6803D69735BBC439301BB730150BDE6B6B9BC82DA28BD1B397DBD8F8055BDD78A7CBD94EB5F3DDF8DD53C96A7A8BCB3BB5EBDDE9D0E3C5ABAC0BCB106E83CF5CACBBC1780C73CF02886BDD3CF92BDFDAC11BDD9EA90BD2BD333BCC163CDBCD16EA5BD143480BD11248C3DB47C03BDBE24F1BC8E578E3D8F5AB8BC5DE93CBD4907FEBCE8C11BBD901A523D5BBD213D6042533DC1BD96BC7BAE833D065B753D9BC227BD3B40213DC1899E3D396918BCF088C1BBF86992BD6561943DE0736A3DF4CFE8BC725192BDD1E57FBC78BF53BC7C049C3D5510F83CB442D0BB5A7DA1BD639E12BDA66E9EBC9B81233DAF9486BD8E5D05BD665AA0BDDFB268BCED64483D785A323DE5D244BD6B7C0F3DCC1533BBEE1199BD0FC792BC1E6CE8BC3B0C4ABD178A8F3DEB47953DB89D65BDD23DCB3C1E40933D50D15DBDBD5E44BC7FF11EBDDB35B33D18E7CE3CEA4AA3BB718946BDD724B2BD37DEA4BD272815BD5AEB7D3D84DAAABDF4C2A63D848184BD9FBCCA3CBDA5AEBD1D6F2D3DFCBA5B3D905842BBA94FA43AC0A7813D85334CBDCA0C4DBDD4FA82BBDF253ABC7915A5BDC973ECBB0B2A413DE5B0853C93F96ABCA88C8B3D5834213D42CA00BDA709F93C64FE983D57A5333CC0D1043D41F737BD74DEE7BC20B390BD4263B53B6C0045BD04539ABD51BE6D3D73BDA2BC55E19A3D71E33EBD6B49F63CADCD953D1353E13CA22750BD75F391BD842990BC9DDFAABCF4D19E3C658F363DCBE5473DB83C643D450CE23CABB9893C5C7D1FBC85D34FBD1737A3BDE0A8053DFF0587BD89D2343D02AF353CB63C763C5EC0A2BD5A4880BDF8F9A23D9643AEBD8B42A7BD4C315D3D21ECAF3D54C717BDBCE8A5BDFB5D9B3D22291EBD14E2A9BD01641DBD1F6980BDE7D27BBDFDB1943D0552253CB7D4923C056D003D3B8D40BDB23C253D8150ADBD01415ABD59E490BC16CC643D368783BC12781F3D052B7D3DB707133DB8E2FCBC633C64BD192C803CB27D403DD4F3143D8165263D1B33A13D5EDB683DB20FDEBCB006B0BD6A2C6C3CDCD2873D8B1E4DBCCB03B0BD0D0683BB10AC8CBBF0D73A3DD6874BBD73819B3C68106ABB561B7ABDC4BA52BD56DE0C3D47B7EF3CFF97043DEF4DADBDDAE1ADBDF0863BBD2939A7BDDA8A32BCABCFC63C88673C3CC4C8803B5DDB5A3D00961BBC2777A7BCCE9D96BD058F82BDD3487ABD1E8B5C3CBE20A13C645EB0BD872FB0BD9753ABBDA5B9403DF7DC4BBD085FAFBDDB48A8BD55C929BDF44C91BDF4D488BD776D60BD5A9F9C3D9C23A1BD2204823C67183E3D91057B3D55EDB3BCEC04753CBA22173DCC2F83BD251EFC3B6B3841BB2B64ACBD9B4C683D9A3E63BCE165653C2051A43D25AD7E3DD117BE3C3470A43D2210303DDA7159BDF435863D1C5B19BD87CC903CECC0B1BDF6B464BD46B3A43CAFCBAFBD2A5D7CBBD9C97E3D1A18083D54F691BC060FCFBB71A18BBD2C779A3D3CBA5B3D5A2C82BCA2099B3D3E3B333D4C6C423D653D0DBDF7D0843C17D66DBC1E1A7FBD7A8A21BC195AABBD7996953DDDC7DCBCDEDF06BD1D9DDA3BC693763DB04485BC0EFDB2BD6E803BBDDBC641BCAE5F6EBD2754853C4336A93D0DB17D3D783AA0BD6A90D9BB8F889A3D518B9FBDC43BB0BD3704213DE6CE303D268B86BC9E5CB3BDCE9B883D3C27A9BD1A25813DFA6821BD47A702BD300E113DFAC38CBD35139A3DF66F25BDCBC8853DAF25943D29613B3D97B5603D230CE6BC290A64BDD44281BACC538E3B8F0FB13D6BFD403CA61FCDBC0DFD383D59E754BDE204243B1FCD5EBDBD15A9BCB116533DEA4CAF3D76BBAABD5EBE9F3DEB9A62BD682499BC4149063DDE4F183DFFD2E53B413C753D8DCB5E3DD6AFF2BC64EBA2BDFD93043DD1E7183DC927AF3D5C553E3D664C8C3D0FF6D53C6CEA21BB1C0D7B3B0B6B4F3D31BEACBC8A711FBDC01AC33B6D645A3D537920BD0AB52BBD044EAEBD902540BDE7FE8FBDA98091BCD7638EBDD5D86FBD14713EBDFB55373DAE8C8D3DFC0E41BD735913BC0D0902BDBA1487BD87D5833DE376913D088EA63D9BB4813CA05FA03D650595BD246589BD78D39D3D8BD566BD590C293DD735003DC3DD983C062B80BD9950613C7449A83C004C7BBCE701913DB900A5BC435D8BBD2DA464BA36B609BDC754063D1FA6A1BC6DC8BCBC69F8A5BCEE86473DA6C016BDD9FCAA3CD07A6CBC82BA9EBD91BECEBC386A093D8F8706BDE6C482BD001415BD919F733C6170B6BC3E98A13C484E96BDE858A2BABD71B33DAB6B9EBDBC01653D744304BC921D1FBD02519EBDEC0AE6BC74A238BD340097BDA0B1B13D2E05B23D0439303DAAE953BD6F71743D4D56823D3D6CAB3DE6898D3C9211FCBCB36A6DBC1FC01EBC16B5F03C5FC7333CABE5613B75701FBD5FD6443C2FEF1DBDC503583CE91FD2BC49FF80BD81D9243D57B574BD1A8D243D0A8287BB2FF33CBCDDBA743D632A47BD62D0CDBC3BCC87BD58B5CB3CEA718BBDC8FB8EBD39D404BDA862F13C00A7923D916B953D03A7853D485FB23D39AFC73B4F56F03C9DB60A3D3F337ABDC58E803D01C800BDDE7F19BDDCE9BCBC48A8913C60AE9A3D39F7AABD778CA1BB0A7A05BDAAF3D73C94A0A0BC1CA111BD25DEFCBCB1D71B3D63459BBD2B7989BDFC11933DE19E97BD48457B3DED8B53BD426BAE3D448E9A3D1154013C9A0E0C3CCFAB8EBD10C25ABC8B46B33CC67B983D0790333DE38990BD0E8F83BC1615B1BD067798BD9D0E423DD09321BD47DDB13C5BD970BDCF2A813C36973D3DDB82D73B0A4B05BDE056AA3C9F214EBD37CEE2BC9DB1D73A6A12A73B9EB99B3BDC1C353C2D4750BDBD8DADBDF19943BCEDF680BDEE2EAB3DC90797BDCDF5B3BD99FA5CBDA3332B3DDFA30BBD8C742BBD8CAB40BD9B331EBDC8D12A3B635EEE3C9E6152BDC6AE44BC43AF9A3C9E58273D109DECBCFD5232BC77D2503DE255ACBD0615AC3D6ACE643D383C9D3DD65C953D2C8FD63C5A5C40BD84DD6BBDF8DBA1BDF4A1A23DEBBE5BBD44923C3D2BBA8F3D560F913D8EF3E73BA69FB13D42D1823DF9D2543C514E4D3DC0AD653D6F2AFF3C7E5F78BD4A0C28BC559DA0BD5558DD3CF55F093B20C7AE3DCB7C633D2112953D700E963DEC80823DEC48523B3D1294BD83847D3D9A4EF8BB84DE403DDC012E3DAD825EBD2FD4823D2EC224BD684090BC7E6EF3BCF22B21BC559F24BD053D2FBC8A50923D28D766BD80FFA93DF4AF873D0D3F7B3D4CA5CC3CA8D3A1BDBD044C3D11A090BD1D7BA23C3DFDDE3CA5AA703DE04196BD134F0F3D935719BDF578033D1D3F363D6545DD3CD8AC943D7C493F3C725DB2BD3F46313DEC686F3C42919DBB67F4943DE4A1553D3AAE00BD4222423D2DA23C3C5B6BC4BCB1F68ABD0F03ACBD4A538B3D85E3AE3D46038ABD9BE579BD32FD51BDE21A503CA87F85BDAC6D99BDEDDE333DE3CA15BD3E395DBD10787BBDF8CD17BC91040CBD3C36B23D01992C3D33F3B43D46DBC9BBC9939C3C8C40A23DF72E51BCDBC1883DD80D653C0D64F1BC9C89633D0B714FBC23D406BD7C5C053C973173BD397C5A3D11378C3DB305E8BCA9D0A9BB694A37BD0DB5AC3DB09EADBDC01773BD237C03BD51EA913D36848ABDFC3E29BDF0A38FBC940FCABC565858BD9AFE333D9D0526BDE7CF3B3D5FBD76BD9F286A3CFCAC94BD7D5F833D4301AFBD8DC5473D8E37473D6CF1A0BDAFC3323CA9986DBDFDB82C3DC8265DBD84CEABBD0EB9A9BDDD7F0B3D3BB477BD829A6FBC3E13813D980E6A3D8E285EBD7B80FB3CB6F9023D1FF4433DCF3F00BC93BF973D5BCA37BC925E323D6043653D88636FBCDA9DBFBC7B477BBD3B16A0BC4B35323D61F6183DBCD5A6BC2238713D893C243D60A49F3DD4A18FBD48BA7A3D59E442BD554B0ABD8198B73CF92F87BCBDD07D3D1463A53A3323683B75E9653DDD852F3DB0B8313DA02A9B3DAF0E893DA75A59BD436343BD9C68303BE8EB873C85B9DC3B544D9EBC84622B3D1FB7AF3D8A2E06BC7900B2BD741606BDC843CCBBF4CB823DC3C19EBDD7786BBD0CBBDC3CF61F7FBC9D4E9ABD734B093DBE011ABDD7E0523D69AA7BBD0B0A9CBDC57FADBDE250D5BB454E613DE0A72C3DA48F89BCED84BFBBC9FB243DB16653BDC505853D4CE6763D18CA363DFF9685BDB2DA89BD6525B83B9DC6B0BCF9F10DBD45A1F73B5628A13DC9E3B33C95E6A43C21A2AF3D756887BD1D3A2D3C1080893D3DB3703D8A0E5B3D16CC8BBD8B7D9A3A904AA33B37FAAD3D8DFB1A3D708975BD28BB0C3D55488B3DAEF0983B731085BCA0E6B3BDAC609C3B1151303D5293883D4653783D53B8193D6E8555BCB72AF83A9C2F93BDFFCDAABD2D61AA3AC569D4BC1444A5BCB088B4BDA34F353DDE7484BD50A67F3DED9B66BD152D38BD246176BDB6A7F5BCD967D4BC552D0FBD791639BCFC692DBDB0DDAFBC0F49C93C750217BCC554903DF4BE95BCB75BA13D765B8FBBB35983BD167068BDD3858EBB093111BD90B81C3D068376BC9B2DEC3C98F8393DE035673D1329423DF115B53CDFD9E43C17239DBD1136A2BD57A3683DA6D9693D3BB1E53B480D4CBDBD7A743D59E1BDB8B6E796BD89C8CDBC777716BB0210AE3DE1A960BD530202BD361D5DBD7326F8BC0236A63D0F1C3CBD1608A13D76CF11BDEE1D263DA5EECF3C38514CBB3E2779BD981C703DF9A5613DD112E1BC9C0E7ABDE96F3B3C929CFA3C0DEA863D733C00BD5CCA643A2274153CEACBFC3C879C9D3DE082A23D063CA43D3B33893B44B597BC5CB48C3DCA44CEBB2AD28FBD91E64DBC839C97BD4E1E9A3C2EA2963C9EDAC43B8378793C948860BD7797B4BD68B6163D9C7559BD98CF45BD696296BDEFFFA33D12E09DBD59348DBDDCBAD1BC3E5027BDBE2D4CBDEF7311BC2F89923D085D00BDD50EDABC05DA833D5B1B9CBD6D4DE8BCFF441E3D2708A43D8D9B013D0C62563D58081BBD04E14ABD3688433D6BFD7D3DE5BD3FBCB92F2CBD18B052BDFAA0B13BBE55C53BB33D6B3DE38E2BBC2ED566BC8B588C3D9B2274BCBD9F83BCA77B5BBD7A016C3DE5D4803DB0E4B03CCD78A63D48E477BD9BF3383DA39ACEBC212E8D3DC0912FBD93D390BD247C423C3CD8B4BD390830BCF9A03E3B9042973D42F1063D7B9844BD3BAAA13D6F35673D4485AEBDE213753DB311DB3C4731D2BCCE662BBAB0974C3D736F653D919BAC3D7285B4BDED55E1BC732CA83D80436D3D26E89ABD1C26BF3CDD0D96BC7A46C4BB333B63BBE57839BC75BA933D892E05BD4430B4BC4CCF0ABBC924213D0F0598BC7819B0BDDEEBE73A84179A3DD479D5BCB0E69ABD8E3AE8BCF08198BD92EA1A3C361BD9BC433688BCD7A6AD3D3911853BA45B73BC5867E8BCEC277CBD53DB9BBDF99FB33D913C703C2EA3153D818C783D11EBB13CA84E673DA985A53DA92775BC6FE3483DD21DBFBC6D48AB3D415B9A3D99FA91BDF38D82BDD5D49DBDD521A43C2B54A7BDC29D733DC8D128BDFA813DBC27F8D6BCEBC78EBC4E51A13D2F2CF2BC28ED9E3B3552B23D8E97973DAAF8C5BC7755DC3BBD0A26BD02858BBDE3C04EBC25D179BDDA1CC7BC9AA93CBC146C3D3D443F87BD6F3D153D67DF5F3D4F7DEC3CD07FEFBAECA682BCDE350C3D02AC49BD9FE750BD74A482BD3DB96E3D351E4A3DB02251BD1C7E173C087721BDFE89903D268730BDB71F1FBA9EB7193D20F1F83CDC6569BD41B2C6BC2AFD5B3CBDFA45BDA6865BBD38534ABDCDBD9ABB096F1EBD4F7FAC3D69E9463B1345B0BD468F3CBDD2D7D3BC7726CBBC6384C93B74F28E3C69FF0DBD38FBAD3D39EAFEBC481EA9BD9996923C8D5060BD8C6D923D567F993C8F17B13D7D98983D3970B23D3623223D555769BDA0BB09BDEEB28DBDD8C9A23D9AFCAF3C120EB43D0C85933C5CB58C3D70313A3D8A5F633D7272DE3C2960D83CBE8030BDBA95983D2AE3A23D5A5D58BC0E9FBDBB277FCD3B5991873DA6DF563DA04E83BDE12BCFBCD69E613DCCE97FBDBBA846BDA02BDABCAEA48FBDC20294BC378C9A3DC866013DA08C48BD1EA09A3D7F8C0A3D30E1443D0220763D1BF2203D1018F0BCB260F43C7F659F3C66C55A3D732E563D3740CE3CA30060BCCE49A43DA9F3033D703F29BDAE02B23DED26AEBC1629293DAECFA83D56A2593DD45C1CBDF6E123BD6F06833DD53F493D3F0A90BDEB149DBDA4B8643D7B6F203D71BE29BD366B83BCEBD2A53DB27FBA3C1C5FB33D3218B03D1BF6A2BD37118DBDAC6F9D3C6561F6BB22463A3D5EFC6CBD45E6CB3C7C2CA8BCAAE3D73CE9BAAB3DE0CE2EBDF46C6FBDF4262D3D48D6623D9A9AF63C6EEEA8BDDD13A9BCF0A68FBD0AB3663D42F53FBDCEB8F33C42376D3C35B1703D3AA725BCD35D003DA6C370BDD1DE003D0AEF8ABDD9666C3D2E4787BD97C2653DAE5C383C560989BCB32E62BD44FDC43C9EE72DBC7E507C3DB164B6BC96383E3C0DE3EB3C289403BDA94922BCC8290C3BCEA6C33C4147D83C7F994C3D1141243D280D92BBCAA882BD147A3F3D69767A3C3AE7EFBB4ED8AD3CE14D46BDA9570BBD49AD39BD12F1C33CF2655B3DCE71303C836140BDBCD3B23D74028C3D5C22AD3DE3673C3C126DEC3C1724083D2BE7443C85F2343D2EE58ABD60E63DBD39CB7DBD520592BD19707F3DEB16833DA73092BD54DFA1BD2D90E5BBB3418BBD72DE493D51AB403D69AD15BD67AB713D680B5E3D5144893D8CD4B63C1001A6BD0906D2BC3A4B3CBD0C4D123D496FD63CA8E8943DF5A4A83C2C5A903DE2EF90BDD418AC3DC69E90BDE47DA9BD5A30523DAAE39C3B01632F3DE6CA453CC00A203DBA81A13CFC7897BC24D1A63D1162A13D9834043DEFCF653D34ED45BD523CE0BC674A91BDFD5C8E3DE14ADC3CA51A033C5AC691BD2212263C7D61F93C4AD0B0BB67710DBDC50B6D3C6AB316BD203D9CBD5808CC3C6B8D05BD55B92C3D0114E63CF3FDC8BC25A988BC7CC0053DEC3E8FBD8C2747BD8E85A13D069E23BD366AA7BD0BA38D3D420503BB6E529ABDA03D9A3DA3B3593D56E2A13DC2AB143DCD9889BD92C4643DBADF0E3D19A3A03CC9B29B3D8B63143D2462AC3D8E2092BCB0FB93BC334283BCEB5C913DFB361F3DF34F863B7951783D414692BC7D4283BDA654363CAD1B203D49F600BDA9509DBD8196673DAA41023D054133BCFA67993DFCE421BDE8D6A8BD042E553CA3957D3D1351333D1A05D3BCBF74AEBDDF58423C16CD9A3DD9D5003DE20BA1BD015396BCEE43973CD255ABBD3F91C13C41FBF63C3D928F3C649388BD5F1040BD8C4C453C6424293B029ED0BB812D923A8411A93D720F76BD70A4A9BDE5CE93BD2F56C93CAC29833BB3D1943CA4879EBCCED685BDD21D7A3D01E126BD11A3BBBCF494863D8DA1CA3C5694DBBC66AD5ABDA39426BCB71C5FBD82871EBC7A77833C5259B33D3E919D3DCF4B6D3C392EA53C8E7CAEBDDF046A3CD7587FBD7199D7BC1E2DA1BD8A9116BD10863BBD50379F3B63FF0D3DABA31D3DACA1D53C8B8342BD54378A3DD01B67BDE567863D1062E4BC5090E0BC3F059CBDD6E71BBD4256173D4DCE523C675E043DC26DEBBC7774783DE57F903C708A24BC77D73EBC222F31BD07607EBCB192F2BC8C5D8DBBC53AD83C843A7A3D7948883BC87FA13D023B533D3B65973D7D7505BD13851FBDC13C51BB64B9103D5853B43DD7D1AA3D249164BDA9C9AC3DD428D4BCA10787BD0CA315BD4356143DBA52AB3D43AC71BC78D90DBC0BFD2FBC6A53F9BCAFC1B0BCCC4EABBDC4194EBDE98CA63D6ADF653D4F85B13D3EF7F03C9C7DA13DD117F9BCA4F24B3AFB3061BDCECC09BD65646C3D49B3F63C2B0B40BDC14DD8BC16FEB23C0B8C783DA79623BD37D3113C086B04BDF874723D17761BBCB97E293CE677863D874AB23D32C996BD533C6C3DF4E5093BD12D1CBD3F4A0DBD4C28C3BCFD8216BD47325E3D1D23843D01788E3D1E34723CED066ABDBED83B3CC1B2913D74E99BBD891190BD0A4E473C1F2A9A3DE137833C86C40A3DBD82A6BC9AE218BD6D033D3D5682963D409815BD9AEE1CBDC5D5BD3BD2009BBC00C88EBD7AF18A3DE9A59B3C9B6BD4BC974A15BCAFAF973D9AE57A3DE4F49C3DEE3E7DBDF127373C698F67BDCB12853D849D81BBA111943D6DE025BD837085BD31966E3D2196A83D916E3F3C18F2743D0508FD3B0A8CAEBD88FA4FBD1CDC70BDE21B963D6538263DEC53B33D439A833D403A783DD2F0663DCEFF55BC3204833A91CEEFBB648B923D7922023D290BE3BCEEEAF5BC5946673DF0DDB03DA31D5C3D33256E3C190B8EBC9E90E5BC68E9B2BC69C08BBD860CB43DBDCDADBD6EBD81BD5B3FA8BC5C929CBD5985933DA996A43C2782113DDB3F213DB8B958BD20BFAFBD55E589BC15361C3D7213153DF1DC9F3D6EB2943C171B5F3C1E71E73CDECA58BB9B8F3E3C73881EBD358C373DFC5AD9BCAD4599BD98D69F3DA6D2BA3C70FF4F3D9CB9083B44BAB73C8793AF3CB8E2933CF272933DC20F91BD94F6313C74E8883D9DE43C3D4AE8B2BD9450933D9404A33C3063B43D2956B43D2C7016BDF0A4E2B9AACAB3BDA736E63C105ECB3C14539F3D9E27AD3C784039BD50F76D3D7F7C723DF4C7B13C570E4EBC98F996BCCD123EBD8E7D42BC3854A8BDA7DE8FBDAA5657BC52E593BD75FF85BD2FA485BDE68F19BD3123A83DFF16F5B99F428EBD21FB753D840287BCAEF80B3C66AF5C3D6B380CBDF9A8873C3A81173D40B698BDC594833D3B7F90BDBEA03CBDA044AABC3D1DA33DAE9E353D2B23A83D523208BDF74D923D5A8DBABCEA904A3D4824BE3C48E03ABC221C5CBDC20D3BBDF725453DE43C4CBC01EF69BD7AC194BD29E2CFBCF6A6513DEBC2B33D73BA433D1A14DC3CABC86BBC584E593C7BD8ACBD5EE3053C3F5F96BA699B54BD485A67BD9FE89C3DAD05CFBC6582893DA98EA3BD33AB54BC26ADCBBC3CC45D3D967C9A3D88D9773DCC99AEBD68B6253D8C3DA23DABD14E3DB3D645BC7C789D3DE107843B9FA3D0BC65309ABD8EFDAB3D6B01303DFF9135BDF9EE213C017D26BD3AD7A93D4A729BBC93A9AEBDBB50723D332309BD2628203DFD0372BA8BBEC63C53765A3D7E2C7A3DF3A98BBD34DC25BD1C5CB2BD68C958BC2A25833D8848663DB308063D03EB37BDC7EE033BBAB29BBD784096BD0A2E4CBDDA3397BDAF9C4B3CA1018CBCC1E4D6BC92C232BD27CBC7BCAA8F223D7F3D88BD8E4D92BD3D04AA3D747B163D7F6B9C3DF447603DDEB585BC93A9693DBABF11BB586F23BD13E171BD839840BD56281ABDB4F01ABD680B4DBD906E933D2816FE3C7AC4B13D4D5718BD712C583D85EB48BDBF74ACBD9D21953D19D097BD09B58C3D9405AF3CA229FC3CE1608ABD82AF963DF219BD3B4E9991BD4F39503D9769B3BCE4A8FC3CEAD37CBD26011C3DF129B5BC2A5E0BBD0378633C0222A3BD3B7E3DBDE21296BDC0C85FBDADC6ABBDDCE4CEBCEBAD453D51A8023D6CF152BDC65446BD39BBB6BCA1CC46BDC3725F3D84DA293C618D2E3DB058043DCE84A93DB2D9B2BC0B4416BD2C94C8BCCB68A0BDFF2531BDF6E384BDEEBD8A3D2D215B3D5E7F0FBDD8309ABC1265F43B047D98BDA303AE3D52860C3C5B68633D45A865BDF8FF4FBA600138BD34B7F5BC4D100C3D86CC0CBD54ED1FBDB041E03CA1FB85BA61DC5EBB7E20AD3D3CA15C3DC3B0973D465ED5BC8AD99ABDC379383DBFF38C3DF9F1983DDC128CBDB66BB43DEFFC8BBDB0055D3D94E148BC31BD97BD8CCC213D806E2ABDD6F665BCA2C729BDBE0B01BDD2885CBC617879BD1BF71D3D06F3263DD8FD84BDE25D193C0B00743C2F4647BD5CD0773D06CB213D6A64E2BC883FDABC59516A3D2558913D27586CBD1316703BCE577E3ABB9DE73CA36C81BC819A00BD24272B3D967B99BD1734ACBD08CE1A3DC4C252BCF79F7E3D1B3669BD8A25ADBD1F0134BD14C09EBBA304C2BC447298BDA26196BC1680AA3DAA9664BD63FAD6BC991DA2BC22F3B33D5065B1BDB1683ABCEF5A9F3C62B98DBB143D133D1A7F073DBE628F3DD5307D3DF03718BD1E20C43C5252AA3D286FFB3C10D79F3DC5E523BBF6B86EBDBAB83CBD66F1A4BDDE2EB4BDF6BC8B3DB5F4863B6DE552BD223309BD7BCE21BDE2C070BD0EE4433D52CFE2BCAF92993D4CE5F5BB77F12FBC71CF643D777909BD106EBE3AA60A703D9B4088BD37DF803D1E5EA2BD30DE92BD5B9498BCC06DA3BD419C123C3C815BBDF388843D909C38BD89D8B1BD0AF38D3DB9614CBD32478F3D4A7BB43DD7624EBCE61D833D572A02BD4BCA10BD5297B43DC065BFBC58ED5B3C150A1F3D87FC30BC2EDB8FBB23A7A93CE9F6BEBC0FF2853D87A0ED3C1FE628BD10B40C3D7ACA3D3DE1E03EBC52D035BDC88D16BD9F3A313B74C79DBD781686BD0916603D3E936A3D79AF5D3DAC8BAABDDE8AB3BD591282BDAE3E353D9A4669BD96646EBDC2F822BC08985ABD6E1E04BD8942A6BDACB28CBDE49F16BD262F43BDC5169D3D0CC6A6BAEB137F3D7A779CBD0EA6A53CF543B2BD417E69BD61AB793B84768ABD11CC9CBC42B9293D05E0F4BB678288BD279DB43D32C4813DF8EE7ABDAD2524BC088B4D3D099704BD41E23FBDF163533B973777BDBC0D5D3DB7525E3CA09D5E3CDF72223DA637893D7B72123DF94F523DFF7F723C44DB99BD0F1C7BBD236C1D3C353D8DBD11D7E4BC3136AF3C0DB0853DD9BE5EBD7DEF26BD80ECA93BB53694BC05E274BD09EE453C144DC5BCF230C6BBE96A043DD3BE8CBDC8B2643D3C96293B1A8DA83DB34C0F3C46D39EBDDEB92BBD97755D3D851B513D32CE23BD4C8905BD7EB11E3DD20B9B3D00A5673DA88C843DE7D3D4BB81E029BDCD0AE8BB2B9C443D21EBAFBD94FEF93C53BEB03D586F14BD3CEE8E3D3AEB82BCF5F529BDFFB2723BE9FD04BDD80C5E3DFFE7C2BC7E1D3FBD5218AA3D2981EB3C9863B93B12EB433DC41BE9BC77B77E3DF77B80BD891095BDEE9D613DC0CCA13D191448BD9B6B0ABDA249623D3CAD583DE3AE61BD0C9C79BD4462523D5770993DA2CBAF3D4D06DABC14DD9BBD758E82BDAE7F8ABC556A82BC165642BBF576093D41732D3D8C7B6BBCE276953D2F7C5D3D4DE6383DC71FA6BD05803B3DA55E153D07AF55BDE4197CBD777BD93C25A69B3D767E78BC0BD3883CCA1BF6BC2795833C7498C93BAE72CB3C3DBDB03DBDE121BD76748E3DB14E52BD0589253DE53DB4BD8774093D346557BC668DB1BC9548433C9DBD68BCC5D4823DBC8DDA3BB7B961BD9716A53D61C9C43C623E563BE1FD8CBD3211733DD295A53D0115963D0BFD5BBD427BDB3C18CC873D4E209C3DE3B3083DA82CBEBC1FA18ABD4F95B13B99F52F3D8CAB793DF895A6BDC6F080BD338F2F3DD396A23D58D4E13AD6918ABDBC15693B7E873FBA6521343D06D1E2BC10EC99BD783C0B3D0CB11BBDAD3DA8BC9D31A33CF766EDBC816AF5BCD635EA3C381F16BD9D8C7FBDE44E883D7237823CFA7AA5BDF85D80BD70FAC8BC87B84D3D8575FBBC8C7592BDFE53EBBC8C32333D7A8E293D6212963DAF4E7FBD5F7CF2BBD7EB9D3D3AF5083D252AEF3C62B6AF3D13CE893DD090E1BB94ECA93D1082903DBCC584BD40F1B13D352450BD6171833D48B82A3D0F78A0BDC88CA73DACFC32BDBB9E9ABC4165B0BA0A1D9ABD9FD5B33CD1638C3D3B07B4BCB97B4ABD59DE163DCA09F4BC91612D3D527D383D4FD6E53CCF3311BC5A95683D049FEF3CFBC71BBDCF01E83CF8D6EABC79ED3ABD20C0413DA894E63B10BAA33CCF3DB1BD64F319BCAA8DB43D3DB19B3DDCD083BC2257C9BA9BAAAEB9A605B13D4BE09CBD588A89BDF5FCA73D7C6416BD6B696D3B7762373D4FB08E3D4ED9F43C0A37E0BC59EE6CBDC2E1AE3CEB97B4BDAA1097BCB281C03C0C3D853D7F4088BD189C63BD92D7ABBDFFA499BD3D179CBDE5EFACBDFCA898BD500185BAAF1981BCD232C6BC3D769ABD61F08CBD2766B13CA5986EBD78182B3D354DA6BD531C25BD71DFA5BC087749BD611A4DBD7F1C28BD85D6283DBD2B1CBD60BD493DE17EB3BDBB10B03D5CC5A63CB38610BCE535B9BBF42365BDFAA2703D991989BB1F27B7BC941D023DC0F658BCC0D257BDCCD92B3C99B9323D8F8736BD164277BDA787893D6A41773CA6DC07BDB747AE3D231591BAC2A661BD8EDDA33D47CAA2BDC6EE71BDCCDEE5BC73312DBD39CE80BDBA33943B598AB1BBFE3E4B3CA5AB4B3DC733873D22C4CABC5C1880BD98CBD4BCD822FD3C51250EBDF27FC1BC890AA6BDB15F913C4C0A4ABC5CAAFEBCA1936EBDF4CEF13C4424B43C1D5A3DBC33CD383CBBF111BD2E8CA63DE92D433D486B0F3B135C4B3CD415823D40F5513D5B8AA9BDDA608F3D43FB16BD3C3B9E3D4056A33D7655A4BD0424793D51A6653DCCF7523C4FF296BD06A2963CFC046BBD84AB44BD4F281B3D2E760A3D5B4C05BDA1E54BBD8982123B20B2B33D20657D3D7F18653C3B0E8B3B1CA879BCDA2B8CBDC10F24BDCF4DB0BC6E9836BD09F4F9BCCF64AD3D3869D43B4A5C913C497457BD94586BBDCA81B0BD3DB83F3D14603D3CB657683DB5DD123D490ED03BBEAA053DCFFA7FBC3D751D3DFF24B03C5A42A4BDA6AD8DBD04D55DBDF9708D3D3077B63C37A6A03C659568BB3206AB3DB66E86BDFBAB72BD4655AB3D9AF9ADBDC4FDA83C05B78CBD4AE70F3DBEF7D03CE3F201BD3C711E3BA2FC143CD4C8393D37BC693DE0A9D83C792BAEBD17914ABA86506BBDD07477BBAF3E36BC3399923D77749B3D144581BD2D5AF0BCDE2BF73C6CCC833DC6CD493DA508EB3C426652BDDAC888BD677C963D086E763C9A318D3D892451BB244671BD46093FBC91C0633DFEC39CBD252A49BD99B018BD0FC3533DDDFB4AB8E8FC77BD2A8682BD35A372BD898285BB96E4AA3CEA4F92BD1441613DF6443C3D96EDA9BD1CA2903D3F5E9A3D0F52A8BDB18BA33D78E0803DB7A4863B724B96BA8E2339BCDF01473DA46C2ABDACAC9F3C00B391BD8C4A1D3CB13811BDF9B78CBC0215213C06208B3DC8E826BD0CBC743CB188223D5B49B2BDC62ADC3BF12C363D372389BD3E3BB1BCCFE6563C06A879BD95A7353D6104433DB4DB983D1A0D2BBDAA95783C969EB63C47D4B7BC1D119F3D165BB9BCBDA3CABC71B464391C9E34BD027D62BD343B38BDE5FE9BBDC97B793CA77192BB598C663C9C716C3DE85205BD558E85BDC350C6BC86B5AEBD27FA433CA131873C44D4673D9C7933BDAE2EF2BB0BF901BDF1624EBD19BE3E3D452CD9BA6698D3BC064A7D3DF334D63CF50E53BDBF161E3DF21F323D4251A73B5D3992BDB6D27E3C493589BCCF267B3DA06077BD417B993D9FCC24BDCBBD93BD004AE83C65C6C0BA12E335BC02F876BDA7855DBCED86A13D449AA3BCAA01963D21ED88BD32521D3D139751BDDD2D95BCA08CB53C16357F3D9153793C7BE298BD459F8BBDD74E8ABDBC5A19BD62ED9ABD2780393DC46DCC3C1827C13B8AE1A73D2FF3123C0CB2763CB625C3BB9BEEAABDCFA794BDCD5ADEBA26B6523D38E78CBD63AC9CBDA555143D52E0A63CB51C9F3DBA81923D8220023A2988403DCD8186BD6CD9803D1F4F1B3D3CE610BD7FF289BD4A091EBBF69E013DA363973D3D990CBCBB16D83BD21189BDF0B6D3BBAA56B5BC36EEB4BD06A4A73DD8FC18BD50B58FBDEE90E83C128986BD13DAE83B1C9E91BD05583CBBB9AA3F3DE57DAFBCABB2BB3C067D20BC27C5CE3C93C074BD9A90D3BC509BFEBCDB89ED3B4A329BBDCD7F88BDDC244E3D135376BDB95D893C05D193BD36D454BC364F0CBCF6B519BBB00C063D47B6223DAFA8F1BC03F6A33C3BCA4A3D303389BD59AD4B3D021461BAADA49EBA97D18B3DF50091BD4E9BB43DBD2787BD91A2ACBD92C9F03CEDCA2F3DC0E997BD3C4C87BC3F45B0BDD69B273DD6BBB73C3DB69DBD2D72243DE6EBADBD487F61BDC5594C3D341D4E3D327C9BBDF7DD3BBDE24D95BD4F6A9A3D8E603BBD40EF733CD2D08A3D0B7D3A3DC744503DB67F78BD3EFDF23A8C9AA03D63BBF3BCD5C110BC1F8E36BDF600B23D969C0C3D09E118BC74BDAEBC444702BDEC0E943D1F6706BD282C163BB4DD32BD3274DD3CCE4952BD7A17B4BD6378913DBCBFAABD1D3496BD6E6AA43D451B923DD589913C5E840EBC75C3C8BC6EC1263D5E50393D54E358BD6AE19BBCD8A31BBDAEF55E3D206A9CBDE833B1BCDE00343D0456AE3B73159F3D7D138B3D6B44A0BD1BC55B3D00FD6E3B5BD25A3DD150993D2989B33DE46E683D1F63623DC5F0113D9AE84DBC339C293C8892A13D3C728B3D746AA43DFD0F913CCA50953D0E3A603D63C98FBD70F7B4BDF8C5633BB1ED8CBCB1AA11BD1F85293DFB531E3CD0B280BDFE0C423C8DFF96BD48E341BD66B597BC12FC4ABDCBC43A3D2B5009BD5DABC6B9D7C2183DBD7678BDB2C7B23DBC65783D0645FEBC63D0093CE6D9073D0E5E9A3CCB2A433C3CCB183D2E74F5BCB8A08EBCE4B62CBD53AA653D342A70BDFB1EA33D1E0490BD1E2C4C3DD711403DF670283D9DDD673DDB5FFD3C72C164BDD6DC72BD47618ABC51A5FB3B0A59A1BDACED92BD76E270BD4332803D2359FD3CF4801D3C039165BCE85DE03C023577BD3F4FA73C6F5E80BA2D4C183D96A14C3D0933A83D786D39BD68F5953DDD14AEBD3D48023D4948B2BD4D282DBD68A5B7BBE46C75BDFF1731BDDB5F6C3DA7DC523D1306973DC0D1ACBD062C23BD8A1C54BDA46994BC937AD6BC05C2A3BC58FDA73D1C6F453B4D2A16BC6908E53CC3868ABDC27D003D6C7AF33C04C922BD28C6223B735AEFBCD95BAB3D0C750BBDE4B889BD16E6B33D94B1ABBCD12E213D3BB4A6BD22355D3C3D5F9DBD722E483DD4269F3D0BD9303D47DFB43DEB71863DB31E343D264692BDBAF0AABD98D1B3BDA6D5B03D55536BBD011023BD74758F3DDAAF9F3D3DC95FBD514E733DC3600F3C6BA5F4BB03D349BCD2647A3B17EB203D63E1643D5908793D5E2F543D46EA0BBD06B977BDBC56343D83E53DBD7D819C3C06EB7FBDD296443DB45D0BBDDA7C93BB603E683CA76A61BDDE0367BD0CF5373D97DC29BBF0957B3C87DAB33CE9F72E3D0B16FE3A03AB153DFAEA643D3F843E3D42DFA2B922CD8EBCE0D8D03B513682BDAC7929BD960929BDE2B5303DA22561BDD86287BD93AA493BD89F903BBB0AFA3C77A84F3BB3540F3C0A968ABD846C92BD775DF5BC41A2903D70C01D3D899AA23CEA5CA9BDA453A83D7A64133D26B0243D3EC637BDAA4D36BCE1717E3C0B4AAD3DBA72873C0106893D909E193D906EA5BD03AF543D55D9733BE146ADBD69622C3D55F0B33D0BB66ABD6011A2BDC65A903D9BBC0C3D387773BA6B5D13BD775448BCD7DF553DAB86403C4BA03D3BE731AB3CFD226E3CE7E02D3DC78E6EBC8AF7AE3D550B533DAC9AE93C420A0EBA7B782FBDA54EBDBC7C6588BDE0A52A3D4EBF463D27EB68BDDECF8DBDB268EC3C9391183C3AA4B93C1FF9AF3D3386C9BCCE6B9BBD9E7CE93C5DF0D43C3A29B23DE71A90BD6CE49EBD8CE26A3C12BBA7BDC7CFA2BD39A5D2BC9A665E3DCBA9A13D87741A3DA99D53BD3566FFBC012150BD83D9A23D4110A73D806D093DA50FA9BD5E2F1DBC1EA2043D262A74BD2B53C73C0A06EABCE959E83BF46F9D3D27096D3D1E1E35BDE564203C99DB27BD6F34FDBCC037983DA75C6C3D7B3E003D5D8E6DBDA7F69A3D3634603C36DB3C3D8EE1ABBCC992103D96E9D3BB12287B3C5E2A05BDE3E3A2BD645D40BD88C18A3C15051EBD83138D3D1C349EBD21E5893DACC59B3D53223CBDB484913C9358B23DA574A33D0F87EBBC88D0283D9502A5BD1363CC3CFA99FC3C323224BD85F909BDA2B1B63BF127393DF6FC8D3D78C26D3C572D4F3C69D893BDF839533D845C753C8993973D29E39D3DD398A2BDD4205CBDA90AC03C4290623D928AF43C0E6F80BD30D8723DEADF8AB99A289C3DF885B13D7A27093C051710BC10BCE03CA1A5153B39E5443D7D54673DF24B5DBD3A635DBC148A213DF055F8BBAD6E0A3DC1098EBD0CA06C3DF86198BD20679C3BCF9279BB6A175A3D3F34B4BDA152D13CF861A1BDE1B0DCBC1E6E18BDDD44033D5A3875BD771B57BD5650613CFFE66BBDEFC845BD2497953D0D20593D0C2298BDB96B463D8C8D5E3DA3E1823C1DE4B0BC051A15BCD7CE913B15E0293DC2C78ABD77C7CB3CD79B52BD4216F3BCA10A63BD25BEAEBDDC359F3D554092BCA8CA843D1304AFBD265D9E3D6E8F53BB0160A9BD7AA1A8BD6C8795BD3ECA4ABDB2309F3D74978F3D62DC01BD8E40033DA78AB33DBB702ABB124F53BDE9A2A23DE0C6A8BCF4F9373C1CD4B93CC106023DEA8C3FBD9C43B13D762628BDCF138CBD7EDD9A3DBF900939AF6DB03DE56319BCBC01AF3C8375133CF367773DF2A1AA3DAB078ABDD8263A3DB1D9C33C7AEEB8BBC49363BCDAD1A1BB2F791BBCE64A52BD2D2E6D3D7A1F7F3CF128A03DC005B83B9682953CD6D8BA3C0DA8873D6A762BBDE3228CBBDF2EA03DD153C1B894F2143D3D05CE3B6802B0BD63C7563D60572EBD05AAB83CCE17123C4CB7953D142991BDA98FA2BDF42B24BB53BF97BD15A773BCC83BACBD41F35DBDBE767E3BA938C1BC343A63BDA9A3333C436E64BC1AFDA6BDE8F4C53C29A927BC00CECC3CF9CC3DBDD76DD3BA3836303D8DF83FBD6BF96A3DCF73A13D7330A8BD82C797BDE4E2813D899D9BBDF07E26BC55E3CFBC824F913DB509533D60BD863C3D7CAB3D1DA0AF3D965DB0BDD315A1BC5DBFEBBC88DC45BB5A6CAF3B108E313B1806713D95C5A1BDC35F9D3BCB5857BDE0CE93BBEEA66A3C480A95BDC006B23DD1F48ABC3C18873DC2858ABC0FB800BB7E1B86BD0A2B493DA06B3BBD5B9C573DEA253EBDAF2819BDAE70853CD5EAE6BA71C5B4BCA4A7ADBD8CEF1DBD4D5E78BD085365BD37A56FBD06894ABDD0AC19BC339A123D4CFB94BDE2C4ABBD7ECCA43D7D9CBEBC713E2B3DBCB6003DFEF0A73D3679053DBD6EA13DBA37D73B12114ABD39A259BCF6AE57BD04C4863D4D4A9BBD58509BBD2686B2BDE70C9C3D5582993D4EEC83BD7A85393DB88FA23D256E7EBDD4253E3DA0B91CBD21EE783D264A00BCE743B3BDC90B87BD30C068BD2E73C43C90CA8F3CD87ABC3AAABB993C62D313BC3542B1BDB5E6A53DD580793DEB86A0BD3B8D3CBA2FF0703D74D7823D68124EBB1A18A13D3E01253DF5A7143BA936E93CE8AD52BC843617BC8AE99439501C53BD5E37ABBDDAF9703CA77E9ABD4EEFE9BCCDF1583C8A430D3D81FE5F3D8D2C7CBB7164A33D8BF4F93C24DDAD3D07B391BD8B61A4BD365B8D3DCB8A963DB3B571BD80E750BD38E6A63C91376DBC77E3793DCF3C053D455F51BCEAEB38BD7AA797BD79A91C3D3C4618BD4E3248BD21248B3DEE9F81BDAC1A0FBD2B0F81BC03A8623D30F8A2BDBA4A8C3CC6A6143DFEBD803D7D40463D08DAB9BB0914433CC86D08BD864783BDCDEE3EBC7C6486BD699A793A2927B2BD78C2AD3DA4ABA9BD4B703A3BC41D393D26F56F3D730CEEBCCF270DBB217D173D5998353DF643CC3C482B82BD3B50A93959A6763D02E3733CE597B0BD3E666CBD3665A23DD28CF53B14DF923B616F84BD323AE93C4543ABBD9B6EA23DAFE5B43D3D7906BD7CBF95BC7BB88ABDB1D72C3C7C4993BD0C19FA3C17A596BD25A2953D09C986BDA133FF3B4F728E3DE22FF4BC8175153D953A3DBD004D813D57BE71BD0CDD2B3DB5541ABB63A1223D73FEB93BB9183A3D85D065BDFC1000BD02D7C13CC1CC93BB06E6AABD7C7FF73CDC65B1BD740C92BD343CE539DB719E3C0B23423C10A0A6BD420B3BBDCB14373D933F69BD445F8FBDDC7A9CBDDDFB82BC6EEB843D87A3ABBBBEED46BC32524FBC57E69CBDA4DB0E3D3DBC9F3D94F99D3D1490A8BDE77E31BCCA899D3D3733923D6F1204BD7E3F3CBD9EDB493DE6F2793DB8847CBC96F0A13CB7D717BDA41F1E3D9157A9BC5AD741BD025EF73AAD3E29BDE6757F3D076E73BA9D9E7ABD5A0C1C3D44D79A3D39628EBD00AF953DF024943D2B0B8DBCFAFF213D3E9F13BD15FCA43DD27F073D80E492BD2B14753A80347F3D74B8D9BC7EF0893CA420EBBCB0B1B0BD558135BD62BF943D63AE01BD2A62A8BDD7FC30BD6ECA35BD4FD3A5BDE30AF5BB900CB3BC309CB0BDC9C489BC2FFA80BD809C593D1F91463DD2FCAE3D3AC0A43DF5231F3BCEC9AE3BCDBEAFBD9DD94A3DB14E213D20328CBDD9B8F3BCAEF8D7BBC8CFD6BB4514903D303E963C1E04AF3DFC565FBD55093EBD53CEE7BC1592B23DA4C4333D19B696BDF9FC103DF5BBAD3ABC4CD83B98DC993D4B6733BA2A952F3D87788ABDD94EA63D9B69B03C5BFECF3C2606473D90E7183D9463AEBD0765F0BC0ABEB0BC51B41B3B22F08F3D5F280FBD6D83FA3CC4D7373D936B49BD3C9BCE3BF87E2F3D8BBE9C3A41009C3D49B2A03D9DC7B13D61D4ACBDA0DA1ABDB92FB43DD67B303C67619ABDF6388ABD16D285BC449700BD526A72BD89D83CBCC4D095BD1DB6A6BD132C743D4B36BD3C35D72C3B300A2CBDB04D77BD7D37633DC3F953BDDC048B3B492691BB579476BD33BA9B3DA8BFD13CF9BC9D3D0F2C1ABD7DBC4ABD74B53F3CA4E6A63DC2468B3D8E7907BD20574DBD13C8A63DA19B843D718FB7BCACCF213DA91E653D74A783BD36568C3D22BA1ABDCA801A3DECE8ACBDCC112FBD4AD82CBD7B94F63C600F4FBD1E996A3D6ECC9F3DECE8B1BCB97950BC33BE83BD41F5AD3DF5A69B3D2FCF95BDEC358FBD27628ABD65FF993DA3FE0DBCBDADE53CEDCCA03DB0E70DBD1ECB8B3B8B55EFBCE4E921BC1CF86D3DC4BA8DBD5C8A61BD607D7FBD411CDC3CE3AA0B3D69629FBD5B2F803D81E52ABD3A41933D84448B3D2BBD213BC3B03E3DDE63353D58C87A3D8F1831BD696AAEBC56DC9FBCEB832F3DA0666F3CE0B130BD109490BDDEA171BDFB9DA03D4B65283D609A0E3D77D5FF3BDADB1ABD87DD7EBD59C7C43B5056673CCB60C4BC1972A23C22C58A3DA5D7883D4C6A2D3D68F78FBDFC92B2BB6CAAC03C18A2A63C92AA823B9A09B3BD74BEB53C6B00533B361C8A3D066162BD949FABBDC3F6F33B867C40BD4639ACBDEAE99DBCBA2291BC81B3D53C2CEE053DFF7D5FBC93B6683D68740BBD6F1864BC3C24473D8DFAB3BD19E6E7BCED012A3D23A1B3BDB5DAACBDCB42E0BCAE1688BD330C37BD039032BD826E113DB23A293D8094ACBDCB5782BDDC43CABC086EF6BC46B093BD217C03BD81F80F3DE7D694BD221DEEBC747A193DD9A698BD1B2D4D3D6CC24C3DF0352BBD69162ABD4F915BBD3D4D7DBDD76AA83C6CAB7C3D88848D3D822DC43C8023B7BCE6EB813D774497BD2360FE3C75CFABBD63708D3D94760A3D8FBA82BDC16A1F3D4360FF3A1CE7923DBFFBB43DD08BC13C92B144BD198194BDD49B11BD503AC6BB673D213C925AA6BD4632FC3CB886C3BCCF6FC2BC8200E33CE28C78BD5622B13C65805F3DF4AC393BE319153C780C8E3D5BDC6B3D4AA66ABDE01D483D7DB7DCBC89F0D53C1B39E23CA21C033CB856743D9A8D1BBB84B7443DB297B0BD83DF33BD8019813D7D14DABC9D9A133D695B8ABD850984BD8D78B73CF949AEBC4AAB543C4C883DBC91C3A7BC0D49093D859A5ABD86A7DE3C0F18B43D086AA3BD8CB61DBD9378653CBD2D8BBC271D18BDFB3381BB85C6AF3D175962BD2B7F99BD897683BD32742BBC961E5C3D06783D3DE3267DBD83EA273D7518953D5706FD3B0C0F59BD5926D53CE8E681BD6A97863D4D7A583C08D6B23D8321943DB21EEFBCB4FDA7BCA88F2C3CEC4398BDD2F12A3C4343703D2042483B3BB3AC3D5BA6183D59C4C7BBE3AC74BCC16587BCEDAF72BDA044083D6FBBCD3ACB86A5BD3D7702BD2D8F843D334F1B3B7EF89D3D0C5F1ABC27F2263DFDF3413DD167B0BB752601BC30251CBDD59E1C3D6CA485BDFF71AB3DE8A610BD2AD5893D44AF323C0CD482BD6D643E3C1F2F09BD0D714EBDE76BB0BDADE1703C19E549BD926D413D4B9426BD26FD2C3D29A480BD8AF0223D84DB9D3D6CA6AF3BF99262BD5F27BABBE03FE53CB31193BC27B65E3C35D077BDE0D86D3D9EA7CCBCE569773C1DB8A23DF927463C15959D3DC6E73EBC82C8B1BDF762AEBC79FA993D9F27393DEFA067BD2012493D17BD8EBD1F0448BCA75E593CDEFBDEBC7E41823D9A01D9BCEDCA6C3D2F1386BC10F882BD310C92BDAE84AFBC875581BDF644423DA5C97F3D092F1B3D300D053DEDBDD6BC0682A0BD7EE1C73C6D5B4CBDE3A8A03CDFEE063DC3D5943D6EEA7C3DE4E36D3DD09D64BB84B7CEBA700A273D2923A3BDF40496BD531664BDDBA6923D7E2DA93DE97E96BC1B265D3D81CB373C9A62383DF31B57BD9CC693BC70638A3D4A8812BDB85635BDB408D7BB3EC91BBD0B9F4C3DE68423BC1CFDFBBC116CA23D18456C3D9B08FF3C75D1863DED17923D294A5A3DB213CD3C03828EBD78A481BDA95115BB0EB2B0BD7EA5AFBC94E45E3DE76A803D3DFF5E3DF76428BD40D498BD0E0E65BDE3F10BBD99DB55BD32DD32BD10B989BD2A9AAE3BEEBE913DE2C79BBDCD1CE63CEC7F98BD9A11003D19494E3D11AFFE3CB6550E3D3B886B3D7AF6A4BD768E393D6C320EBD6A7D1DBD69A1803DADA9E93C42A022BD412F993D09FA05BB40CC253DAD3653BD16F557BD246D88BD38692E3D8D0B91BD65983DBD02D9413D6EF4BF3CE5B7C53C18CA903BFD31043D36809C3D542E913B0621A43D2D6C86BD1524853D41D70EBD4F36B03D5D6DDE3CE73CEFBB095EAD3D5F472DBCE5FDA5BD01FF693D9784873D4F6B8CBDB4A26BBDBF30DB3CF0B9FABC6D216DBC037585BD9FAC0B3CD13A713B71B4943C9A278D3DBCE6B0BDD61B87BD38F995BD93A95FBD422A80BD3D1F893D781E16BD34CC83BD935521BC85B1D43CCFCD9BBDAD799ABCCC7D9BBDD834C43CCCED9B3DBEA57EBD65DD8ABC55238FBA63CC873D8563C7BCE19BBC3C941634BDED217F3DB14948BDF160653D460B833D68F48D3D25FE38BD978A033CE108D33C4ADC80BD27815A3D7E1713BD40EFDEBC721B8FBDBE7A04BC56A6613C1E34653C0F688CBDF74A89BC65FA28BDA64B6E3D11B09C3DA8C12D3CEF1DA03D1983A5BC7048343D4A8632BD57D988BC376E94BCBF5258BCD0BE8BBD2605763DE05B82BD6F042A3D39D12BBBDD0011BD543087BD0BC395BCBF57B1BC98A7B73C820C8DBD3DB9443DA83DA7BCF6A1003A8EA216BCCB36AEBCC421B53B308DC43BF317A53BAD64AABD201B4CBC886B97BDDDA5453D4405963B7EA58E3CB8C7DA3B258049BD42DE213D5C3E4AB948DC213B129095BDFC4C8DBD5D8D9BBD8C3779BD3D828DBD72A775BDFDBA95BD63F85C3D86514DBD7B2C26BD1A6781BD29C058BD04C61DBD86CC453D07444CBDAD86AFBD8666213DA28D043D78924A3D1DD98A3D912B4C3CF5F824BD0D811F3D84AF5FBDCEC689BD412F4E3D956700BCA5BD273DE2FF423D4C160FBC8306E0BB8C41423D334609BDA71595BDDA7F423D4AA76D3D5E7F0DBD4BF398BD3436243CE6798A3D0A41963C2FBCC5BB0FDC25BD485501BD54A9A0BCF88736BD2319633D3879AFBD3DB8493D79396A3D04B6F8BC40B5033D230BCABCEC39213D6342B83AFA8A973DFE0962BC3FC759BD9EE2D0BC4E59093D7893A13DC2819A3D79B9373D14E5A9BD2B409BBD6CA582BC1BB3D93CF67817BD9AD34A3DA1042F3D0C3184BD299E02BDB775083D2B9055BDFFB4EC3C4FC41EBDD7E699BCD16E70BBD2F8F3BC3773783D9377663A61FEADBC8703B23BD319713D3F2014BD12A94BBDE59C0CBD938994BD45A1C53CA8D69E3D818B343C9FA7993D5798A5BD3D8334BD1D6B51BC189F1D3CA4371EBD48BA863B57AC43BD6740F23C15D78DBC95ECCC3CCD7094BDCE6F84BC52FC90BC1AE3593C104D903D4F320C3D7181FD3C50E6A0BD21EDB0BD0F1DADBDD16388BD64F781BDFA7BD03B2BF8683C044B853DA8FBCB3BB02C92BC9C04083D8A3282BD39258B3D8E9A923C11628B3DA0F8743D5691943D873EA93D70BF11BD5FE92C3C3C9A183C3BAC013C4527F83B34EA75BC3AFB8C3D5613B5BC6830843CF46FC0BCFA56D23C37BB7DBDE432983D47A9023D46471C3D7AB4E1BC89F4033D822AA13CFFCC6B3A34F26E3D6CE284BC8AC728BCD36D56BDAE8F8B3D48BE2ABD599A9F3D8CE0E43B7F96B4BD7EA7CF3C52827E3D42D6F3BCEF463B3D1E1082BD74B3913D35538ABD28839FBDA998E5BBEA79F7BC355D743DFABB463DDE30D9BA4412503CCD0F19BD20050FBDE8C7C73C72B089BD4220423C9D27B33D718C6DBDEC56653DB9F29E3B80757DBDBBC36DBD961F703DE7767F3D82208BBDAD76FE3CEDDDA5BD99DA58BB20F490BC00BA9EBCA288803DAC78DF3CEA149CBD278E063D1FC7693D9C70D6BCCE55AD3D90AD3B3C43ABDDBB6B72AFBD64036EBD42EAA4BD4451CB3C0980713D74E7C8BCB0C03DBD400381BD09CF6CBD2D5C443CD3C9D03C5B82DE3C362C323D7004BEBBD36D30BD77F3D7BB1B1130BA07A7D3BCD173A2BD2A6321BDB10E943BE879943B18A779BCDDBFA9BD8348B3BDA9D43EBDD2CB7DBD5462ACBDA92E883D7AF487BDCEF04CBDE950283D530A893DDADD913D5ADF79BD45FBF33C315A89BD37BB6ABC3079773C8E9E8ABD5B6292BDD9B060BDAAC43DBD79F4FABC296D35BC16F1803D93B1C53C6057DABA6C5CFABCDA35243BEBF513BD3FF5193DD08E1A3DE2E30C3DCFA51DBC1C8B6EBD41CEBD3C777E86BD46C6E8BCE265B33D2FF1103D0EA0A23D3B20E1BC0BFE8A3D3F41063D7342433D2D77733D951E26BD12018E3D8FC9153CD0469DBCD24E633B5C9889BD6BE05F3C52CE003D73090ABD8928AC3D0C0D40BD562E5F3D1A00113C3685B23D12BDA6BD6D0D983D38DAEE3CD81D7A3DABEE9B3D85698E3C64E4ABBDF8AF1A3DCD55163D9FB7B2BC8AF7D93C37946E3C2827353DC28AB3BD125F643D2404AF3D908A58BC0A63263D6030863C044E803C92FC7CBCE3AD6B3BF48F043D18F6893D06928FBDCD0922BDFAA2723D5A37B33DACC9C73CAFEB643DE29397BD927FEB3C5B7F183D3DCE5C3D8F390E3D72ABC3BB955273BC45CD853DE6A334BD220282BD99DFFDBBCA59EABC6C6A673DEEAEA2BCF564103DD598FFBB3C80B4BC2E649DBD1C279D3DECA0A7BD56648A3D335FA3BD1F6859BD71377A3DA4D77DBC47F374BDD7A93D3D99CD4DBC82E5E2BCB5CC8B3D8E0AF1BC7D1BA0BDFCEBB0BD290B193D568311BDE3407DBDBF0D94BDD83E1C3D2659B4BD3FD6343DAD0D9C3CB4BBC83C128CBA3CF9AD7C3DC58B8FBD825D063D80F63CBC6C8F0D3D1BBA82BDAB4683BD7CDE113DD8D886BD8D0534BDEBD8133D5BEDF23CC2C6A4BD995EA63D8854913CE5F07E3B8BB182BD75FD43BD610B6ABDB5FB8BBC037A823D78091EBD674850BD7AAE513DEE112F3C552C453CF34CA6BDFC317ABDD7BB7E3D115A6CBB6DE3AE3D1B8A2DBD26DBA5BDB81BB3BB77D5533DA686A1BDD91D883C6578553D08741E3D88C34D3DBD77A13D48E5F8BCC7A2B4BD5BCAD43C11D39F3D2301553DEB43E93C1272DEBC414EC43BB4FA8D39FECCA93C7C830E3C2A7D7D3DDCAD57BC396F3CBCB51D013C448884BD0EE4933D4929123DC23690BD30D64E3CBC2859BA4C2AC53CD14D9BBDEE7A49BD42530E3DDCD2A1BD1B248B3D6CD9703D799CA0BD7FF8C7BB16D308BD841E9E3D08A0233D253A4FBD05513BBD017A51BDFA6DF03C4F9C8BBD6635333DA1BD3D3D06397ABCC89D863D7ACAA63D54284EBD241CA0BDE59486BC284E5BBCE84A953DAC5E593D1FB688BD0F1997BC56E5113C8EAB21BD93ED943D68BB173C5DD3B1BD45E28FBD46A4173DA14ABCBC025B19BC47BC1EBC85A9D43C1967453D26C5893DDD318D3CF2E506BDB7815A3C8AA9723C8F721CBD86FBB03D21D21C3D0B7676BD14A801BC55417A3D1F359DBD34897A3D9BFD9FBD27ABA43DC007B4BDE98998BDF494943D43775E3B63E3753D93E1293D231C993D54EC443D76879FBC877EA23D7BDB11BB82A2903DC444133C671778BCFE08FD3BE4667BBD8F48D0BC76B16A3D9798423DA1A9153DD316843D8C83863CE549303C633FA63D6ED8903DA303BFBCCDB3BEBCE17240BDC61A69BC1768BB3CDE7380BDC40E6FBDBE4E44BD4B4F943D2B04153DB35327BD130E83BD513340BD06C0CABC499A543D11FE943D86EC0E3D111F51BDF871ACBD00D18ABC0653B03C6965D53C3CD37BBD33F8F33C1843FB3CBB70843DF2835EBD9E52963D7C3D99BD73C78FBC0B591F3D6729083D6244413D9C0E8A3C1FE3233BBA4F9FBD7E1F2E3DF3F3843D6BFB9E3D0232633BA734293C1F2103BD18E997BDF86023BD1D609CBD1F166D3D424EF6BC9E5913BD1E0F543D03581C3BB6F74E3DDF7132BD3F5564BDFFC768BCF6297D3D8E8DB43D7B07A63C54554EBD2C4A193DBF8D9EBD0ACF963D95DE223DF40301BD597E90BD2F32DF3CA90FF53BBECC673D0DC7A13D8FB86F3C82CA35BD7932B13DDB9DDCBBD8BDAFBD3B06703DF732873DC16EB4BD3B874DBD033221BD8AEF81BD8EE7A5BDD3BAC33C4A834A3D9CCBA8BD7790583D001E6F3D9F47EB3BA80ADA3ABF5A4BBD7484A93D5B825EBD8158233D578A3B3CB66EA3BD74D7823D29605CBD71028BBD2BA1873D79E4FA3CF5924ABDD106133D756D763C39E72DBCE43C0FBDCEB53FBB2DA380BD35FA50BD9928293D031D97BD87BF263D4C68983B80B6A53D1C2EAD3DC1DE623DE759483D739C87BD8CE3963DE737883DA02D5CBDF7D707BDFC99B33DA5A18E3CB8B165BD3BDEA43DE2D057BD8A7BCF3C3F9B933DCD96BB3A83C8E7BBF055303D2D6E0B3D95710A3D807A85BDD81F9BBDD231043C26C4A13DFB03D23B4585863C7DA0F93CFA259F3D9B20BB3C5C96113DE4898A3C49D2823DDC1123BCB6E9A1BD57BA0CBDE7E7A53D0241983D9248B23DBE34253D6141063DCBE28DBDEC1BA8BD2714B3BD3FF4933D520070BD7467A33DF519E9BCEAE184BDB06AA8BBEB42FF3A5471B23D7F9D5D3D3B87013D6DEAB1BC82B754BDEAC57C3D0A96913DBD26153DC725003C46F38DBDB031ED3C09D5683C4292463B7D99ADBDE87F2FBDBE8A3ABD01E3E33C7BC1B53B1A730B3DB4EAC43AB66F763CEDEAA93D68ABE3BC3236903DE428EE3C4ED403BC29B4583D874F8FB9D167A0BD341D61BBF53486BDE16700BD3DEA013B02DF9CBDDC6E9FBD272E1D3D426309BD0F1077BDEE3C443CB277F53CB4F6943D43D8A0BC5077893C072588BC6BEEE9BC8867BC3C2DF443BDE7497F3DD292ADBD36A0363DF4C4923DA483E6BCDE7EAEBD8E2320BD2B80E2BA323497BDF330F33B891F7A3DAC9B843D3AC6C7BC873493BD108622BD1216213D9F808C3DBD1274BD7CF127BD3BB679BDCEAC1DBDA09F2D3D38F74F3D9A479A3DB2E5D7BC33084EBC03B999BD17E4A1BDC664BBBCB9A8203D482EEA3C44BC5F3DC48782BC0B8764BDF83A7EBD40A0A7BD3DAC583DC665EDBC5BC9943DF6FA863C45FFC93C5486283DC81A633D6C09C8BC2D91A0BC1B580A3C44FFF0BC3F8295BD02C3AC3CD37FE93CED9B813B0BE9973D1102BFBC71D472BD4060803DC39E5EBD394DE03C66AC033C29AFB0BDF2DA8E3B240C89BDD6AE0EBB7AD39A3D8CDF84BD905A9CBD6F1AE63CC9A6623D73F4723D622F51BD709F923C733E863B290993BD1705833DDC00F03B969790BDFC3B95BCB9A5CF3C2C3433BDBF325BBD2717B63CE84752BD38F510BDDC2A94BDDC72763D8BC94BBD1EBA98BDEBE443BDECE4833D6DD5ADBDB36F483DEDCBAC3D1C11663D0A9F513D7CDCA63D513D293D707A073D2BE058BC7E9444BD818730BDF16F3CBD8FE0A6BD2C77B93CD9779D3DA3D6A7BC86110F3D9F2CFF3C3C498A3DC0F757BD27B2A43D4A344DBCDD1FF4BB020C803D708EF8BC56F180BDF7827D3AFB6F15BD5B5B23BD8F86973DDF1C563D9F438EBDF3FE543C99CD75BD31F0AC3D96887C3D3F699CBDB8EF0BBD74CD73BD7AC250BD21D7B23BB86837BDAD3F323DCD25B13D9A13633B43A4C7BB8EA4013D6F90623BD67B493DC8FD57BD6A4751BD34C26D3D0B54813CCDEB883D9270163D4C2E9A3D0718A93D49D68D3D970AB43CADEC60BDA0B802BCE67F9FBDAF12A23DC203133D0D88B13B0992923D1890203DB2DE93BD4AD0133BB328ADBDA127A03D55FE883DA6B5373D16AB883D843F403C04F4B1BC497D293D5737D5BBCCB0B1BB87DCECBBDBA990BC116EF43C6A7B8FBCA9D401BD694285BC5F62793B3DC5EC3C0DA155BC3D338E3D95B4DE3C4C2A873D5D05A3BD4B6C5C3D55358C3D71AE40BC5F8A8DBD49BA773B3154E73C1CA6943D4B2EA3BD0AB307BDEB663F3CA54F663D01AE7C3D661F8EBD5F34A7BDAB2C1A3D5390AFBC4730A8BDFC3B873D47ED8A3D2C0B873DD9ECD0BB6DBDAFBC39381A3D0AD04DBD170577BB33DA82BD0484AF3CB4D1133C5225ABBD6B98AA3C67C3E8BCA06281BC3BBD813DE46A4BBD47797F3C3B35423D7F060DBD217C863D979A35BCE9E304BD30634D3D964982BCBA4D52BDD3FEFCBC012530BDA153AD3D45B5553D387DA2BDBC83D8BC3C4732BC136842BC7D720A3C9F2A603D2CD060BCCDBC7CBD529B0B3DDA0C3DBD1114A7BDCFDE9FBBD32FB83B1AC5963D6DEDA2BD1DA2FF3C3A8E5DBC6CC3D3BC19AAE4BCAA52B13B1DFA863D422AAEBD6589A1BD30A84DBDFB5414BD997A5CBD04AA5B3D4BE2BEBB1CC39D3B755B53BB1A8724BD36AA9CBB822398BD13E74B3D890DE5BA6AA92B3DC5D99A3D6F321A3D3345AA3D0CE612BD0656783CB4DF95BD5850A4BC7AC5A7BD77348DBD3BE194BDBACA033D0E4493BDB6C7033B12D1AEBD2CE715BD148F4ABDD17B10BDDD256E3C8C3D273D142399BD5E05683D40CDE13C7BB551BDDB3C39BD8366C9BB3B1F2F3C20699C3DE2A0A5BD9EAB33BDAF1B2DBD9BC21ABD5457463DCEA60CBCE583893DF206B8BCCAC0AEBDC96A98BD038B84BD7DF82DBDEEA4963DAE91873DF12597BB523E3A3D78BA17BDAF91403D08DD25BD7F30C73C2409B6BC9387823D4128B2BD687E3D3D557C99BDF32FF43C5F11E73BD88565BD75FF1DBD46A6A1BDA9F3F53C9302393D6D548C3D8F3C6BBDF0FCDCBC12619F3DCB5C81BD9EF052BD8400A3BC79DF9A3DFAD09F3DA7C4AEBD51F39FBC534D823DB906E2BCED45263D4664DBBC8AB1A0BD3481AFBD2129B43B2FC38CBD52599F3D7C779FBC2E448BBDFCC8D0BCED6E683DB5DF79BB96540B3AC4F324BDB6DCA6BD8F1DA23D67FFEB3CAECDD2BA5CACDA3CDC1D143DE53E553C6679E43C012C6EBCD34159BD7E5B8DBD6C3DAE3C6D8CA3BD94AC28BC3089A0BDFA65893D841BDEBCE8A63ABDC3DAA4BC4FDE39BDD97C6C3C8FC3D7BB0B4B113DEF3063BDB7A3073DB64B2B3C5DCE463D60E052BC4E75BBBB0CAA40BD229D4ABD2FBEB63933C00BBD302EA33D871A76BDEB2D243D9D49863D98E8F43B87DB5A3DC03899BDFA9D493C1A560F3DEDB4AA3D233C1EBDCA90553C7697ABBCEED56ABD82C182BCF5630DBC7A9B86BCDE70A5B8328514BDA9972D3D82D136BDA3706E3C2E42CA3C51B83ABD8B4573BD1281A7BDD26E6F3D925D523DD3E89E3C942D83BD1F264BBDCADB7CBD2768853CA1B3AB3D403D9C3DC16A833D8B8D593D517593BD403F163CAE20FDB9AA31763C593C3B3DDDD2D0BBEB0650BD0F30AA3DB4F1123D95E4FF3B508D6BBD32777CBDA709933D8C0DCEBCA7442BBD9E3621BD6FCB4F3DA010FBBCC81E393D621AF0BC9614AFBDBFCC3A3C3B52183DFC8BA3BDE9018F3DA395AB3DD965993D8FDAADBD17211ABBEE70EDBBD27E9CBD316AA1BD3793843D4108CCBCBAA55D3D155EC33CEF66B8BCC709C83CD076873CC11C253DD60807BD44BE4ABD1F1E7A3DC6B8BEBCF0CC163D3ADF84BDBFABA4BD7130A2BDFE6EADBD6506963C1A116C3C4960D13C19679A3D43E38ABDC3E3533D286B18BD852A8E3CB0CF623D049E863DC6602F3D480BB33BDD90A73D540A05BDE708793D7763923C3AC7923D24BC923D224C8B3D4D4D0CBDA4975DBB673F3CBC3CC1A93DEBBF0A3B42D28ABD73CEE0BBE2B6A33C1118433DEF1225BDDF55F83C84B6A43D789A8DBD98E25D3D6285383B2E4E00BDFA5B40BB58D461BC2B250FBD2BF014BD9DABC4BC28303C3CECD65CBD84E405BD7CD2A23D7009393CBC0B023CCC9D263D15C01FBD8FCB963DD539C53C558F8D3DFCEB59BCE4D23ABD691501BD537BA43DDCFBA7BD9A5E0CBD52C46A3D4244A63D6BC8FDBC62FCA7BD03E42E3CD619B4BB290A84BDEFDAA13C5536AB3D95F1CBBAB29D9E3B4630953D0A08CF3B90D88EBD006E3DBDDC5668BD8A04DDBCB899503CD4226B3DD710503DB1FF1FBCEF103A3D3425303D591EC4BCD8B3D33B728C25BC22D8A8BD38D98A3C4287C13B215DA1BDC8BCBC3B013DC33CB02C943DAD51713DDD613E3C173B673CA821043DB5B385BD4F2065BD9C0D20BD417050BDEE45B33DEBF436BDE6D7B73C1FEDA83D3F0BAC3DB55A593D929DF9BCACCCAE3DF965B33DAABC39BD7DE7093DF1B18ABD380F6D3D9A81913D00C46C3D6D295CBD3E9B613B6E88283C901B1A3D7309453D14BD983D9A6BC8BCE263A3BD787091BDB85CF0BC5DC2BEBCABFB4DBDCA740A3DFCDC583DF2CFA9BD691015BD526894BD4C879CBC1DC1053D31DC86BDB465633DEAC4CDBCC8E31DBD70F11DBDC79205BDC33A903D3935283DBD927EBDCE579ABD4E8C443DF4E5003DBECB813B8A5FD43CA76650BDA00190BD18B61FBDB5BD843D5CD124BD9638A03D70EA6EBB3DD33F3DF9CC523D406AAB3DB61A51BD8A6820BD2B8B8B3DDC218FBDABE6293BCC657B3DCE19DCBB9AFC033DEF360D3D86735F3BECCD873C34F98B3DAA3AA9BA39EA5C3B978BCE3C971B3B3D282B22BDDA49823D90E5ADBDB85007BCD85865BC4B4B6C3D212A61BD02F00F3D9868973D81B7033D63E4833DEC422C3D76C4A5BC7904AB3DB9E350BDE43AAC3CF18DAC3D4ED128BD9C472E3B3DE17C3D3E5D453D33FA1F3D16EB4F3D38038EBD0230043BFF7A6FBCC30278BDFEA60A3D0D3D68BC31CD893D4EF3E0BB3B389CBD2E7D8C3D65D2863D78944C3D8D34E7BC715A16BD83A4393C3E6F9E3D291B71BD9DBEC53C309F8B3BB4115CBD23797C3DE3BA5D3D39B057BDBA10913DDD0E523D470CD8BC7365A93D5739CABC0B3030BDD15E8B3C7C2015BD29618CBD771C9C3DE2009ABDA0E1043CE7A598BC30AD80BCC8D653BDBD37403DAACF16BD8B6F863DCE9C88BDE06F95BDB345C9BCDC32FEBC6CCC24BC7AF2B8BC20D98ABDAAB2B13D0724D93CDAA8443CDD93A2BBCD25963D933D693D1044FCB925390F3D2F3EB03BA71D5FBC253FABBDEDF9B03DEE4653BD86D49D3BA8AEB5BACB6A2B3D1CC158BDAF72E3BCB3E11A3D552D8A3DEC6176386FBA783D12DE773D3635B53BB615AB3D9B63023DBC8655BD38C0A7BD884EB4BDC623D33B385524BDE78A80BD64B8133DB021E5BB7EF98CBDD29C99BDEC019BBDC324DCBA9B2B2DBDE6F3B7BC7410FA3C600CB4BD6CEF78BCC8BF8CBD4EA850BD3F83B33C7D682EBD920AAE3D552944BD9297343D904C51BD9A1300BD125755BC9CD6863C897380BC1E9033BD7B546FBDE37A6B3C23F09B3D58897F3DE8D58CBD2E1A66BD30C0223CC838AB3D6EC4B03D616B46BDB49691BDB0013ABD328A483DA85F4ABD3197133C056E18BDC9D281BD0205943D91533EBD0BE6FABB889EA03D5400013D48221EBDF693A5BDD34E1B3D4AFC983DA583E93CA30D973CFE673DBD6863413DA2D0C73B0FE6123DB6C5D9BB932000BD5502653D48D480BDD7C734BD3109B53ADCC1A8BCF902A53D1F7F95BD3149AB3CA5CC9D3DE99395BCF52288BD79BE79BB61F778BC41D5773D79E94F3DBB4D9D3DF75652BD647C27BDA64F8E3D6FA23E3D8DE4B5BC2CEB8B3D22EB8BBCBB7A28BC138912BC9D3DB8BC66337CBC6C95BD3B88149F3C8788A13D7A4F9BBD604812B96B517CBD97C2A93D673474BD4CB491BD03CFA93D6D8A35BD3693A0BDF49096BD1654A5BDEF1F7CBDEC7C27BC4DB8DD3CD979383D9B7C9F3D401B38BD70129BBD6004073D49893A3D50C0DF3CD15889BD9DF9B2BD3EEBAFBD107480BDA5697DBC2247A53D2DADA43C0D0F41BBE452AD3D15EEE23CD90350BDDC2B7D3C580C113C1E9B983B6D845B3BEC51AA3D4859B3BCB3DEB1BDDD80713CE4CC62BC9D96073D1DA3813D879A863CDD76AC3B4A3A873D1591F1BCF2FE89BC1DDF9D3D02ACC53C3C0C883CBC8352BDDC90783D357DF33C2AD5B63C2C712C3DCF8720BB4A1A1F3D1B0B56BDCAD926BD77416BBD6C317A3DAB763EBD429E0FBD26EDFCBBAF337F3D0313593DBD5C7FBD30889E3D177A0C3DED6A723D5CA1D53CC30290BD1D13AEBD97A6933D40DCA7BCFBE79BBD62A82A3D8B119FBDB2C4333D51AA1B3D5398B03D3FDA2E3C8594873DC6D63DBD6F72173D7CEEA73D298B71BD35CA40BDD08E5D3DCF831C3D34409EBC39EAF5BC1C61ADBD6DC38B3CA1CE243C268CABBC016B61BDC62843BD73373ABD7EA28D3DDFCC353DD30DC73CE1E306BD30560DBD73AC3DBD309283BD03F6B4BCB1698DBDB3A5A13CB319D2BC616BE63C358993BD0E5A2FBD464E23BAABF730BC2091ABBD8DBC3EBD35D8AE3D46C7A93D7277F6BCB273B63CF9DA84BC6F148ABDF5F68C3D35D956BDF8F1143D728A8EBD666211BD9A13903D926C923C84245FBD00FE083DD024703DACD67D3C551F48BD4AA954BD5D1D4F3D31D9483D81E9233D42BC52BD652E84BCADDB16BD709D293C3951D8BCDB12DEBC399691BDF5CB4ABDE57AA8BDEA7B88BD3A18B0BD9DD20ABCA49032BC1FCAB3BDEA0D8EBD7DD14FBD74D4D03B851B9ABBB41797BD61BB94BC635FC7BCA5F5BFBC18249A3DFAED843C781668BCDD2B4EBCA59FA3BDFA0C4F3D05BCCBBCF15BF9BC45B041BCA1FC6B3DC3C5AC3D3C3D0ABD725D1ABD03459E3DD41B85BCD15798BDB51ABB3CA7E3C43C894D96BD11C775BD3584F0BB77F6A43D3B84D23CEB268A3B43C2913D74E8E93C299A91BCFB6023BD003C68BD4D4BA63D52D3903D3A74803D2A56B83C9C34753C029B51BD68554EBD3F45A73D9D4991BD9A5A8A3CC7566D3DF808D3BCED65653B6D4D72BD2D3A323D02FF92BCEB5807BD5567403DE4DA983D6BAB0DBC4E2EFABC9543AE3DFFFEA8BD739A173DDAF8F13CB59B9E3CCAB4B73B4A0604BB0ACB523D2D98713DC3FB223D828A6FBCF9E2563DDAA2BABAEFD0E6BB6A341E3DCD8798BD5CCA3ABC2D83593DA52E1CBB03FE5A3D6900AB3DADB75C3D4B8AAB3DC508E83B16BB8DBC67BB09BDD1CE033D1F4CD33C837E8BBDED617E3C77BA723C0010743DA1F78CBD0E5F493DA144A33D3EE56A3BAD5B3EBD3CB05D3D52747CBB02099DBCAB46633D3C3012BD277160BDBB1193BDFBC30D3DBD7B013D6051AA3DFBE3083D057BDABC2DC053BC146D573DC0084E3D78C3443DDCC6B83C986B3D3D09E210BD100CE4BC4B3A3D3C66BC55BD04C9A43B9C96813D6FD1463DDC4036BD391D2F3D17D382BD10762DBDC6D85F3CB8DF163C151EAE3D8A3D07BD39742E3D2BDE9D3D76B14C3D84F3663DE5FBFF3C94B48BBB95415DBDDF857F3C1B0B853D50EFA7BDAE6728BCDD73933D1E11AEBC64E053BB58F432BCA3DA40BCDA2E14BD53D19CBDFFE3AABDFD025E3C784D993D8F628C3D32A854BC941F3F3DD2E18BBD70E98CBD5C09F63B1C9120BDBD00EA3C4EFD8CBDFC5D913D900EA1BD4FECC1BCEBF49BBD10274F3DFAC08B3DCB6FC1BC1BD7BFBC244677BD3A15BBBC6F485F3DD95DD23C3307A53DFFB156BA61971DBDCC7D5BBD600B29BDD67DB2BCCD41383D1C93FB3CBF9B0EBCACCA8BBA8A3FC4BCCE093A3CBE3F43BCC08019BD4E56563D994EC2BCEF5888BD5AE18B3D7E4A6D3DEED467BC851087BD27FC80BD2912E83CC820F63C3FB896BDA586A73CE2E2A23D8CB3013D054309BDA74E203D4E762DB90DA9A7BDFE1024BC641BA23BADD1FD3CD0A6863C21D277BD78FC96BD6D6A23BCD620863D6E18F6BC3D6E94BDDEDFAC3BD99F573C58D3CDBC36C01CBD4602DBBC219FA7BBD164EA3CA6DFB33D1D0DB03DC2B5C4BC3107903D56EBF43B0B87AB3CFED89F3D5A1F14BC1C0BA4BDFA68433D8D4500BDD0E1023CEED7813D13DF19BD3FE36CBC1CB93B3DA9ABA2BD47F4233DF2B9373D55BDC53C22C2B73C121382BBD497C2BC8A10913DE0E09EBDC6AA833D7EE8B03D9C684CBD34F2873C538EDB3C0230433C5435C4BC454AA03C613BA3BC48E285BC7CC6893BE903703CDBB5853D913FB3BD12D0753D2C9E80BD42311D3D04DCB23D0EFD6E3DCE64943DC2A0113D20419E3D860AB13DCF8F813DCDB144BD40315E3D307E11BD2FABAFBD1799A23D261F473BC1BFE43699C332BB8C0A403D667B4F3D6E9142BD946F5B3D9400963D2CF15A3B83A9B2BD97801ABD0CED3FBDDABB303D9BEB9FBD6323AB3C67207F3D7DD5B33DA08FDC3CFD6C923DA231ABBDE244DE3B770CD6BCEBC0A2BC0B599D39D574D63C6A40743D8786923DA38323BDB0241FBD62E4593C55216CBDF8BE273DC166ABBDA8F80DBDC98920BD0DCA683DF1A98C3D6CB98E3C25BB75BD3574723D0A8079BDABF9993BB8ADB03DFDAF7D3DD29163BB1871703DDDEF4EBD5D817FBDDD3DED3CB87751BD7AE5B53C265C7C3D44162CBDD529C13C7063ACBCD9095C3C4217203D42AC22BD0AD4843D620EE43C5C0427BCC14D213D5E528DBD66A4A93DC514D73CB00208BD0997AEBD2FCFB53B02D945BD48B19CBD6B416E3D4743833DED05893D5A1C19BD2DFE60BD92B5AB3D3914B13D5AB3F6BC1344B0BD5969373DC21F623DAEC4C3BCC1BE35BD8851603D37F9753DDDE50BBDAE92743DB07286BB8E29BBBA919A5BBC09203A3CB286913CCCBC9BBD9FFBA43D0351FC3C6B0B58BDE83427BD40AB033C15F3AF3DA3034E3D61F0CD3CD7D80F3D46D96DBD5E54823D09964B3D10D8033C58FB653CBCC7843DAE675FBB0E12983DC221563DC50618BD60E7E4BC963E163D81BDB33DE44EF3BC3BAA8ABD861629BD5542BA3BFCDF89BCFC2B88BD36500DBD39373F3DCC5A78BB297CA93DE9D4603D8C6BA63DE13091BD5BDD9C3D25905C3D5245ABBDB1E58C3B9B10373D561C14BD3E8A00BD386954BA36E9A0BC2C4D7F3B23899C3DDD39E9BCF6051F3D046206BD1C98BFBCC4DE8D3DF2A02A3C1933C83AE65C95BD4CBF63BD332E083D924D833D549080BCF3936E3C75C03DBDED00AD3CD01D8D3DB0B4703C3DBF9EBC1446933D176721BD4912A63C0A3D903DA26155BD21E5F33CA3FA483C8F1519BDD4DA22BD37569DBDAF19BCBC5DBC183D0726DF3C206299BD07CF8F3D54F3A5BC20B8923DAF64723C145C8F3B8FD2A93D88B2AFBB390F813DC066183D35C393BB37B1A9BDBF4813BC00DF10BC9B05473D910180BD531165BDC65A843D2C0E253DC429EBBC77F576BDAD37953AAD21CABC6E09103DD70C98BD85DF533D1CCF62BDF82A843DE7D2C43CEDF0A73D4E94F6BC4FDD4B3D9B3F1ABD5FF68D3CB1537DBD1FEA78BCA046433DA45DA1BDE272AA3D0A9579BD63E486BDA1C9B3BD8EA1923D2161BFBB76092ABDF2974DBCF380413DAC8E4CBD9A738B3D095E76BD9BF072BC6571953C96259E3D5EDE893D7DA3F13C095CA0BDF43945BD947B74BD486E9F3DA5C9953D671E843D999D843D045BB1BCE799BE3B12C33CBD33B51BBB1084A43D42714C3C125F893BB665033D75428BBD0A92A7BDA862AC3DE6BDD7BBD16082BD8BE481BD460786BC435565BD1BDECD3CEC624BBD94A512BD90CF233D08A3983D2CAAA63DC9EE23BA0DD924BDED9C17BD65CF803C095CF4BC2C5FEC3CB5B9EF3CC289C1BC8F65A3BD83BC7CBD29821E3DA48E5EBCA3E60D3C7D1E793C94C871BD3D6FA4BD3AA0A23D2EC3E03CB8BE883D9984843C28BB8E3D378367BCB90172BDA200AA3C1424193D7D28CDBC104688BCF9BFB2BCE4D73B3D614392BC128F13BD66463E3D6002613DE9764DBD11F184BDDD5A5DBD5397543D460CA23C719EA1BDAA6613BC56FDF53BDFE7D1BAEF4406BDF0519BBCF6C637BD22209EBD7C138CBC5A5D84BB3A5F463D3AFE8F3D47EEF3BCA785C0BCFB65AEBD0769B43DA7B435BD8FC9A7BD655170BDAAA983BD9685223C91C7A7BDADA1ACBDD4E888BCB38F52BDA47EB0BC338D9DBD328663BDC84699BDCD6FB43D30E24EBD45AE70BDF16669BDF788CD3C2C35C03CE509F5BC73F682BD5A17603C61C4973D3F164DBD945C81BDB9BA583D54D09C3CEDA447BD23BF7F3D328EA4BD6C689C3DAC00163B554D9F3DEB851E3D9F6A9FBD0F749C3D16F62EBB1E37A3BCC1B83DBD9E63173D68F8653D6543423CBDDBEBBC77054FBD6A5F763DD946343D563373BA7FE8923D55920E3D74ED0D3D2C5498BD3D2A203DA96369BD8107E13C169D443D22B781BDD0E22DBDBC7B92BD91A80F3D4452AFBD3DC592BDC32AFC3C27A36E3CAF1F2DBD1B9E13BDC9004C3D72DCB43DF385B1BCC704063C7096933C6FC61BBC2D5388BD7D8DAA3D647FF8BB9A1354BDA32411BDA71F403D72F89BBD9803D83C1CF353BD7BDF85BDD2F94EBDDA9B0F3C8768B13D8856863DEFB957BDD04615BD3D509FBB9062893D7E37813D9EC1ABBD9CFE7BBDA3FE203D0E0C673DF326A73D613749BD8453A23B1333B13DDD06D0BCBE46AB3CC0D06C3D90D60F3D06CEA2BD497104BD9A68E4BC548DA93D897939BD62E7B3BD7C56AC3DD8CFA1BDA01482BD997BA73D3C8E983D51A0043D4D165E3D1FB280BD06F430BDB3CC543DE58F87BD7A9B523BD800713D2E5E563D9C2991BDC940CFBC62B873BDB6F2A43D64CAAD3D7D5C2ABDBF76EC3C24B16E3DBFEB15BDCB8C7ABD36DB80BD794EC93B3636AA3DA3C6E23CC3236A3DF09DA1BDF41DF63CA1004CBD0C8FCC3C36D0D03A1E47F2BC54E7F53B1966A1BD23677D3D2787183D4E1FA1BA89F5DCBBCF8AE43CCF09953D814D84BD608168BCAA2D003DEC831BBD8190953CC4C7813BA74F963D4A2B90BDF04BE9BCD35BA43D76D7AF3D455C19BD830196BC455F663C771C343D616E733C41454E3DF753643DA4F632BD29AB913DDD52B53C4C9A83BDB441FBBBC23E6BBDB1C230BD967F46BDE31733BDEB885ABDE660523D31D182BD7F279ABD25437A3DD10848BD6D08973D768A9FBD0502B23D13B363BDCD2306BD0A0666BDDDB988BDBBD6813D28354EBD16818E3D7363983DD3CAA2BD285990BCE34C8DBCFFBFF13C4FF428BD2DC3E5BC2CE91DBDE4D3843DC9AF98BD1502903D6EE173BD2EAB2E3D0FD51CBD691419BD3E649DBDBFDF94BDEDD285BDA39E3BBDFDF429BA826C3D3D03E871BC73568E3D862F083DC87D213DAB7326BDDE72923D6D06FD3BDE9D9E3DEFEABE3CBD7635BDDC3B8A3D2B8EF5BC4A1A303D770FBABC4A63983D0DC0AE3D8866203D2BE20C3D5B4B733DD4E990BB9B154DBD4446643D87014E3C38068DBCBBE07C3D2864AA3D4FED85BB85EB853DD975FCBC3F4F683D9A8494BCC8C3523C2528AFBDB2595E3C4F84B2B99AA2D0BBA4E07E3D0679DB3C64453CBD81868F3C9B1723BD96D1753C3ABD8D3C7EF648BD8CBCA13C7A20233D2836513D94ED803D5458BC3C15BF6EBC2274E1BCEFA4353DD670893D0541723DCAF98CBDA5CA19BC0DB80EBDB75CFDBC4E250A3D6703D7BBA24573BCCAC92DBDC491E5BA8500803C2968253C0973D7BA97718BBD53FFFABCEFD776BD69B016BD137BB2BD85198B3D65C7A23B0DA413BDBBD357BDBE60A1BDD1EBC2BB63DEF83CB3E92A3D15FCC238EABFC13C16388E3D8E5AF43B672C8B3DA9BD70BDC17CE4BB933C0ABB07855A3D60D9AA3DB4E89E3D3E20003DE067443DEE8ABCBC1F2E083D0BDD363D77868A3D305E5FBD951A9CBBCE1691BDB1A4583D54B7A13DEEBE9D3DF8DE68BDE5298B3BCB0A893C0C76173D5F9213BC3F58433DE71C8DBDB35990BD59B69ABD04D0863DF185003DCFD5D3BCFDFB843CA67F36BC7F85953D9DB60C3D3DD016BDE9B5A1BD226B0EBCBF689EBD682C39BD4364A43D8C6E80BD992744BDCA6A8F3D4CEC813DA63685BD0F6A8E3D22C0FD3ABF15C1BC35EFF7BC8F6AF73BC2A1CD3C4C36A13DA43C953DFED3023D24FB753D905477BD10EDCDBCE0349ABD3D77043DE7AC8C3D0E3A733D5668473CC1F80EBD4AAB98BD77395F3D7A33843DE488B5BCD8FB043D3E2E1BBD34BEBFBC3D416A3C39DA693C4127093C34D746BA161B5C3C3534FEBC8AA5C83CA9588EBDD97185BD1BCF1EBD23B6AD3D6671A73D7A4A85BD43A22E3D5EAD8EBDE720A0BC9089053C3404063CD3673D3DE64BBEBC34778C3DE73180BD36BB73BDAB307FBCA1FE903D16CF87BDD54B3EBD8F0C27BDF67905BD0EE1CFBC06D0CA3BF037883DC71401BC6FD7163DB45F78BCD90513BD2204673DFEA0323CC9C58BBD07C6B23DE674EB3C6EB167BDE81D68BD6011C038BAD0C2BC011B4ABBBA75343D637FB13D3305C9BC0ED97DBC9A4FF73BBBCC043DA95095BDBD84A8BD6B2DE6BCD9ECA63DFE90043D9620543D619389BDD146A3BDA6A98ABDD37EB3BD115C443D57C704BD7901B0BD7564D63C9C7B57BDB4D4B13C1990EB3C3252433D46F76ABBB2CA9F3D3E0026BD764406BAE66572BD1878513DA0FDA4BD0DA4A8BCFDF8163D71618A3D347581BDAB0E68BDFA5EAABDA8B2283DDB7F74BBC19BAEBD61227D3D96F686BC2BC94BBDC564C93C7FF88C3D0356FF3C8F1589BDD9277D3D07DC363D35AF87BA0BB2913D90315D3D2E75B13CBEF7CCBC10D593BCB3DF8CBD77ED42BD88B2423D478D863D20D473BD4D43DC3C2917873D9B96ED3CCB75EDBCC9329FBD101E483CF2311F3DDA41B93C177C733DC4F8893DAF371E3D90F4873DA6DA8B3C42730F3DB686A6BD3A9E263C05B3D9BC90DEF8BC587DDD3CC78F913CD74F9FBCCEEB7B3D61939CBDFA589F3D51C11E3CA31289BC3970BF3C59A94FBB368C9DBD886D4DBD80840E3DBE61F3BBC598A53DC80E5FBD5CF08D3C7AD687BD6F41C1BAE56DDE3BD61EC4BC37A5A0BD3A13D2BC2A92BB3C74936EBDA8BC76BC4D052FBDF6FEAF3DE179543C090BD9BAC4E638BDCBE14B3D5B2990BDA69E76BC151CFDBB89315CBD180BCA3B3406B03D7F12283D544D9D3DEA32A53D013EDF3C083B373CC999923D578B79BD65C14CBD3B18933DA8CE0EBB9E55E9BCB97B26BDFA058E3D03769B3D381839BD37EE9F3D19D3C1BB047E383DB1D6683DDFC782BDF7D5B93B8481713DD3E4883D1338953DCDE8973D0EE56A3DE6FB953B4D74B43D561E3E3DD4DE39BDC93BAC3D531677BD7E5F24BD64A9923DE1BEB83C8806A93DDAE052BD7DCD1CBDB68A993DB30882BD44136CBCB3D9A4BCA11744BB4EC544BDBCA2203DD862B1BDE450753CC2F6703CD9B6B63B916B18BCB1C0B33DBC7769BD63C6A63D0F82513D29BD983D7006BCBC7256DFBCF5E396BD6449A73B55639CBD52B689BD268A1C3D0998A93DEAA9613D8924BCBC79F07A3B4FA595BD5F59A2BC8ED1843DA42A543C7F32C9BC60305C3D27DC6ABDE060A83B7048433D559E9F3D510DD0BCFBB264BCCB16F6BC2DB7D8BCA585503DA4954EBDF997DD3C9179723DA6C6663D27020DBDBEC270BCB78F71BCFC898C3D94215F3DFEAEF3BCA6F8943DE9EBACBD3A78FDBC52C9923D9172A1BC51C27BBDBE6D9EBD1B14D7BC766FB3BD8F9293BD14EC883C98C460BC63E400BD3C5D73BDA1CA89BD384B743D12B2BBBC08389DBD75F8A8BDC0BB2E3B5D64573B403AE3BC00B7713D5AB3B7BC184E1BBD84844E3D3146613D09EC273D6DEF56BD1A6781BD1C302CBD1C2393BD304E44BDF32099BDECBA263D5F6CD5BB5180DBBC8D839A3C2F5FA6BD1659693A90D48EBD43B9B93CBE20A33D9D07523D06BD383DDC5C91BDF2B755BD24220B3DEF18983D8C562E3C376A433DDC4A5EBD097922BCAB354D3D2C35A9BDEECC933C27070EBD6E6C8FBC97211BBBA8D1B3BD94BC91BD705C62BDB4DEC4BC78B2FE3C8317A53D7949F03C0E1B553C4A5C7ABC1A54A03C1AF7DD3B5DA14CBD49143DBD67C38B3C2B5B84BDCAC298BD4D4EBB3C34CA19BC3459B13BD7B22D3D889A73BD76B2713D75F8183D7E90C6BC92E42D3DA16A743D47188CBC703204BC9D49D53C0C8814BDDDC4243C2986073D61A659BC9009603DCF999B3DDA16173D817D823DFA10B8BC1FEF9E3D10595DBB17E658BB868FE7BCE75BD2BCFECC873B8E99ADBDE6E43CBD443328BCF23CAD3D6901CFB7FA9098BDE676CBBBC7F141BD2A5167BD83D3183B62298DBD3EE3793A1D904FBD0D5699BDF6C7B23D0175DFBCEF85EB3A846FC33C779C973DAAE882BC99B0423DA85A7A3C51AB33BD76C7173D44A304BBB471993CF1440B3DCE0474BD4EA202BCE339FA3C3B9F573B39C108BD70FE243DAB85863CFD6148BDAAD05FBD23EA7FBD5A030CBD30FD31BD3D148A3DD3E31BBCA096523DE732ACBD20194A3D5C5342BD5147F2BC8E9481BD7B1941BDBB6EA8BC400A873D7BBDF03B90F199BD67E911BD60015ABD350095BDDF8736BC4F74F6BC3A18273D84199B3DCC1E92BD1CE9983D1338953CA09E7A3AF331B2BD9E80AD3D002499BDC23B143DEF7B193D1D9C163DFAA35CBDF27D04BD9272E83B366F1C3C77EF703C1DF5853D7EA182BDB8839ABDF06C5FBC053EB4BD17C1A0BD91F866BD114B85BDBF4202BD28278ABD84B8A43D2DF53C3D72D7D7BCE99C243D8D653F3D161B923D6EEE15BDF81E72BD9C5EF2BC7FF87E3CDEBEB2BC7302E03BC907013C914EE5BC570A353CAE4258BD025B3DBD5F2BA5BD4A264B3B3DDE9C3DBA02893DFF9E033D6689033D5DE68FBC800A8A3DC5650DBD7FA95B3DBF8A61BDC9BC1C3D700A053DFBED16BDEC5597BDBA2AABBD22C2AD3DBA39C83BE7612A3DAB0D80BCE7013DB945EA253C7008843DF618843C4FAE5E3D3A718E3DA78849BD0B7695BD170AABBD0965AA3D2896C9BB84E0B33C371FA63C20F92ABD9F1E9DBC841A743D9F2C86BD269F49BD9A22ECBC6BE2C8BC48FF9A3D63959A3C616D97BD29DB933D5A6A6EBD111E973D7509EC3C6E5A483DFA0299BB7E63283D153FA9BD87A57FBDACF5EC3CEA3D8B3DE9B3E4BB045784BD9048CB3C818C6E3DE35DA3BD1EFBB43D18E18EBD700E6C3DD4A7823BDF54863D5CDB86BC4DC3233CCF73D3BCE5B7973DDF8C023B79A473BBC4E4303D257254BD63560D3D040FF6BB31B5033C518910BD10CF90BDE3B79D3B63C2B93C181328BC0A3592BC7E23DABC17D387BDBA5E923D18C539BDACD1AFBD227590BD28FEA9BCDB2771BDAE41533D5004AD3D1EA6A93DAD05BEBBC0B4BEBCAE6BDB3CCA94053D629AFEBCB2A64F3D56E3823D5B4D8D3D1650953D53498ABD546C1CBD4328BDBC97BEBDBC70014A3DF662A53DE90892BDFF056CBD0E2F353D84E98DBDF314A63DA6904CBD5E6BA0BCD995143D7087A33CC92097BDE75C4DBD0A5D26BD76A33E3D9B2C08BD34EBACBCC7DF63BCFE643EBD17ED3B3DCAF888BD475E59BD51C9953C2B2180BD65D9673D8B9479BD5616A93BC13B34BDD6CA03BD9D581B3CF174A13D196053BC0FAD103C77CC5B3C995F233D27FC7C3DDFE0D0BC49F1813CF5D56DBC433909BDCBE9F73CE1A3663D1C28303D7069A63CBD5DEF3C4AD0ABBDEF1E093DD81B72BD6A7B02BD41D9E43C3B931EBDF325EABC26F8313D5EE790BD92F14DBD73CB023CF1CA283B9B0E31BB152719BCA55BE6BC8C1781BD93AD283DB963DFBC133CA13C6E7A283DC7739F3DA5E88DBDC2DAD73C7B72973D51D719BD5311653DF34A943D070EA6BDE6997E3DAEE59BBD840A4F3C8D7A74BCF26D72BD9C382DBCF05176BDDE5D8BBDF04D41BC8B1249390D30E53CFF660DBDF03E3C3D9F327F3D3C38B4BD05B2953DCF09643C7B7B98BD6A25FCBC569CA2BDD75081BC3F69B2BD522298BD3E94AFBD91185C3B7E86CCBCB42C93BC76FD853C46B2123D3D7FB33D29EED7BC252BD0BC740EAD3DF0DBB2BD356C843DE1E981BD224393BD916F073BCD81E3BCC2894DBD2D9AB4BB3A8BD8BB5155743DAD0B29BDBA5502BD4E9B96BDD122303D1E678EBD2C2C3BBD6B9654BD89D45A3A254D6DBDF9CEB4BDFED1493C4C76B33C51AB83BC9603793DEF4C813DA1774DBD2ED96CBD3BBA2DBC40248D3CE3737F3DE99A5D3DD0C212BD328FA33DE7C32C3DF63D5F3B18E8B23D25D3E6BAAB869EBCD7C973BD314947BD7250653D27C2ABBD437AADBD2C76C6BC904ABCBC47C465BDD1ACBEBBFCAEB3BD0998403C291481BDF0E0B43DD37689BCEC8E98378D69AEBB4387DE3CAD00873D2849A1BD63B3BD3BBCAF873BC939A4BC9AEB023DE4E4853D84546DBDB636A23D212CF8BA335F643DF156803D374C543D7D179CBC458A7FBD98C124BD7DD3333D9573173DAA6AB939EB452A3D4373523CF1C000BDF9B0D7BC736E88BD9A51CFBC529A713CBF6E973D59F79E3DA9DA2FBB9765C43C940C583DB6A94F3D32B08DBD9A843EBD15794CBDA8018FBC497564BDFC66A63D3A7A90BD9C43953D89C0D6BCB327833D93557A3CF0A191BDBFF6C4BCF5BCEBBC3C15CE3BCD47923C602768BDC3049BBDFCFE82BD6AD774BD1A8879BD41BA48BD7EB6AC3D5307763DE86E00BD8FA7A43D71E48E3DAA573A3DC60CA63DE29D9FBD52BE09BD54AD8B3B892A873C12AAB3BC5D88283D84EEB13CA4646CBD8A232BBCBB1C303D666000BD4FA15FBC6C05B3BCC17D8ABD1974CAB8CC0A2E3BB7D1BFBC0C97D83C0151573CD43ECDBCD8E7673D3B4778BD8325A53DAE4340BDC4435A3D5C4C043DF16094BD3CA1A73D963D82BDCA675BBD81E0B3BD7332A23DD0BB4ABD2454103C6C0F85BD2DBC773D9B04AC3D09E0AE3C70153FBDAE6DCCBC793398BD35D7543D1368943CC0F686BDF12A103D06F20C3C9FCB82BDBCDAD33CF2931DBD01EA53BDBAB03A3CC64E5B3DC95538BD9338BCBC0526433C6DC2603CEE852F3DD798CFBC34084BBD72FE82BD4795A83D28048F3CA02F0ABD4BAE873D2B6C56BB922670BD38C8333D32756FBDE5A1893DFD556E3DFFCC7ABD8536ABBDC009713D990BA73D02F7A1BDE21596BB0415B93B4146AFBC0077053C6CDC9CBD9E19513C859DC83B35D287BBF7478B3D8C1DA8BD5BF0623D0C57E637E927583DDA89B0BD8993AD3D85929FBD3CD847BC64C058BCCAE3503DA73B3FBB09E188BD968A54BCFE12A83D7F02B4BD2F7ED5BCCC0DB1BDFC94A13DC17144BDE4A0113D8BAEB1BC31E425BD656C273BCEBE0E3DC972AB3D78A46E3DA9AA8ABD164F503DC7A0CA3C13AB893DB9E5A93D1D2B93BC4C9BA0BD5A4ACB3CDDC7273DC0589EBB632153BC42DD393CC35B43BCA9741A3C9102A83B5FF6A73D32ACAE3BAFB0293D688037BD7285023BF249C0B8146721BD78A437BD5B8056BD6C1507BDF54A8EBA291AA83D06F84F3DE803823D799342BDCEDA9DBD5439333CEFDD8D3C68E5943C6A7D80BD1D136EBD72BA7A3D8DCF883DA53A1C3DC14863BD1B11AEBD8051BC3CC4C684BDDDD1FB3A9E90AABC6399A23C3521793DD080B2BD2F642DBD339111BD2D5DA13B338557BCB20A223D10ADA93DFB4488BD01AA873D42ACFA3C0317013DBDB0F7BC9941B2BC4306B0BD4299BFBC9B309EBDC66A1EBD74F889BD59DB783D94A98F3D16064A3D1C2AA93D7A38E8BCD89FB2BC5555993D7F24263DF322B03D08435BBD4D2DB9BC81A80A3D9F31FE3B4050AFBDC452993D6D44543D31E94A3DDB9F9EBDD9A8563C67B5ADBDC87C9CBCC318913B1F6D713DDCB98ABD0834343D2680A73C2920D9BC85CEF43AC65E5F3D42351BBDE6914E3D6A65373B66DF1EBDE1D0F1BC5ECDAE3DCC400B3D31D9B13CC0CB4BBC2089543D4FD3F13CDE1D8B3DB5C639BD0D7A9C3D188EACBD7BF358BC1416ACBD704089BDFFA593BD153EE13BFD4A26BD5DE4E9BC978F853DDABA03BD65F4A43D4C354A3DA5FE833D5B06803DAE9545BD46F42CBD5D0E133BDA6512BDBD1DD33CE4C5203DC69221BDDFF6953D41DDACBDAFAC36BD1A076EBCC038583DCD8E57BD058366BCC08237BD385BAEBDCC360E3DFDA1883D8FEB6B3D3A9FA93D012732BD039F4C3D37B183BCFA1618BC3B52823D71D7A2BDB2569D3DA3C7A93D4A5B12BB5B45303D08E52B3DFE1F38BD7DA8A0BC313130BCE84653BCF383BC3B3BB1923D03A2143D8D8DE8BCF38800BD31916B3D73EC8D3D0F0A84BD5747133D015999BD3DDB023D22E753BDA064D3BC50DED83C7A1C9F3DF8FC81BDBF8EECBCD492883D33B280BDDDE0F33C5A95B0BD774588BB3C85B73CA4E6BBBC4213703D2CACB23C573997BDD85D553D62D56D3D787EADBDF03E27BDE726723DB0218ABD85CCC43C75FF45BD637C58BDF668F4BBE19551BDA74DAB3D96E8D03CB217973D9DAF1ABDE7468FBD2AB163BDB924573D8479B1BDFEBF3BBBD832B3BD4FED1A3D6BA5A2BDE13EAC3DB093AB3D609283BDFF525F3C02E510BC23D6A53C47B15CBDF74C2A3DB35ED4BCC89596BD51AC8ABC7A09A7BD499430BD1743C13CA1FF89BD7220233D9E3C123C4099A73DFA957E3D70BD2FBDAA64B3BC24D4443DAD97173D7BE293BD917FDF3CEDD3C3BC8369F4BCD0FA8EBD0325113D63E6A5BD6777E93B8D44E6BC64C51C3C4CE00BBDFA1AAF3D8A31A73D8A12B0BD7F310F3D9C125EBDDB06143D3EA2B03DDD9A773DC1E0413DE9DCA1BDACC7AD3D0FFB893DA44AA9BCC7DC91BD6D7F7EBD0D08AB371FBC6ABDC02030BD28BDA3BCB8E92D3D22011F3C65C6363D809B82BDE3309D3D608B6E3C858520BDE8FCA63DBAA1DFBC383FDB3C78FD193C3A6EA4BD4F55E5BB371911BDEEC08D3D97CD8DBDAC43B3BC33E89EBDD18BAB3D3A43833D9F9169BD9A28A0BD3231853CF6E28EBD290EC23C60DA723C2E543DBD372083BCE507B2BD8B7002BC6B4838BD48909A3C1CFAEDBBC34D023AFF0C173D228A3F3D33005F3DF80296BB2C236BBDABC5A13D2C01AABD2AF9823D2135AB3B1E093DBD8A894D3CB3F00CBD0CCEEDBCACED0E3D920792BDA7FBB3BCD861013D36B42F3CE86794BD58799C3DE2C0A03C8DC9AF3D1FAA0EBD81C322BDED85E03C61297EBDB3C2763DD83D583DB266A03D00E9273DDD73B03D3834E7BC7205163C832EFD3C44B381BDE0B1063DA616A43D8291AF3D3B44B6BCD37BB43D9D47803DD28FA2BC21A4E9BBA8B9053D362AA93D8D358D3CE2C6B43D76BC143CECF2483DCD5940BD81F09BBD0B375BBC7331573DB859993DA229993DBD66163D5EC901BD9ED3A53D651FB63C8501603C50D181BAEA74D3BAA61F0E3CD7CE9D3D47FC683C875574BDF293733CD773123D48C6AB3DFAAF4DBDF0DC8C3D5C3790BDBFF1AB3D428F86BDD7F23FBC211C483DB2CA8B3D02779D3B5040723C27410BBD014DADBC22504ABDE54AA33D715C823DCE5A3ABD0DCF5FBC18394F3CFAECE23BF142A23CAC3B683D5B6B92BD82528B3C69C6A13D4E422E3C576C85BD32F7CF3CF20853BD6CB8CA3CF0BC9A3DAA800ABDDB80533D0635543CE3E34EBB2E17B03D3915FFBCB8AB193D5A7B363D6F9D653BCB35E63C4B3536BD1125ABBCCA39B03CEDEB53BD62C0793D1A7935BD82ED9E3AEA35ADBC4DABAD3DCC7F0DBDDD2AB4BDA609503C40B316BD8793A73D3F24E2BA9F3614BD752DDEBB2FCE963DB0A3B2BD38E2E1BCB2A09BBD02F83F3C0B06443C71ED813C907990BDFDFDF3BC4EBAAE3D49E0A0BB26DF633DC50F80BB19BA16BD3B1C37BD83D5C0BC8D127CBDE1538A3D8A7F9E3D825571BD873E2A3D25520DBDB760033DA08E22BD7DDE0C3DC8C43EBD1815AABCEA7F71BD637699BD531D86BD45A6A13DA7FA4BBD702063BD11D9FF3CAD109F3DC89F683D003D24BD16BE2BBD0C34ABBD889EA33AB18A483DDC392DBD37CE583DD2D1C03CE73A04BD830E773D1D139CBC82C919BDE6DC25BD9DA048BCAAEAA33D538F973CDA5FC73B9D13B0BD74F4BF3C8FE9D43CAB34883D03A7E7BB1D4D60BD67C39BBDD3CB83BDBB7F1EBB4181AB3C83992C3C6C0D203D78C189BD80B1A63D7C13273DE55B893DF3398FBDCA62043C3B299CBCDD1A303DF8C77EBD7C781EBB7A1F6EBDF49D133D6CED4E3D9F76B0BD0F058CBD6293D3BCB32E57BDE233AE3D95DCAD3DAF51AE3B61A90ABCA3D2183DA40833BD77BF9D3C267FA7BD7C0844BD315397BDD6ACB4BD1C0BF1BC0BE7CFBB7B1E7F3DE7E844BDA2346CBC4EB4433DC36D8B3D38D58EBDDA56B23D767FA53D318C66BDA70E82BDCE1AF83CF6E1903BF3D3ED3CC9F9B0BDA61AF0BC846D523A66ED98BDC98B18BD99B12C3DD0BC583CF756693B196F843DD8FE97BD7F70A33D03EB8B3DAD4736BD74050C3D7AFA513DFA2352BDBE5A653D41BD21BC6BE19DBD11F1443C0EB04D3DC8D207BD6326B03D639BB43D89FE873C7DF5E1BB03CC72BC11C691BD732B553DBFA217BD4DC6023DDFE0CCBC2C8F8E3C02707DBDCD428CBD8A4126BDFF5B47BDE57C80BDC70C8BBD91A799BDC8D646BD60EF82BDD9A5D13C60DB47BDEA0F6F3D0D51983D38DC0FBDD93B2B3C30AB813D658AC6BBAADAAD3DB0A67FBDB24BD8BC5BB3343D8C65CC3A785015BDC499D0BA6C95A6BD80EB9FBDECFB043DB29E123DA250393C3BBB4E3BED4E66BDB1D6423D7667263D105939BD04D71E3CAEA1A93DF2F18E3C9DE6293D7FFC8CBDE7D563BDCA1BC33C0A78ABBBDD45973D7FDB0E3DFE01363D0039BFBB3D56AEBCC1209F3C9B93ADBC54C7963D1CE2ACBDEE9283BD5086AABDD09A7C3CA30EB33B0FD9D7BC417C7C3D2036C8BC78B6AABC9FC484BD3A1B13BC613B303D8C0B6BBD137508BD48011EBDACA0733CB22D57BC3F3D08BC900ECEBCC575AC3DAEB49BBD707F8E3CFBB851BDCFAB85BDF735B3BDF119F8BC2A861B3D16B4C73BBFC44FBCE41386BC9476903DB0C5993D75039EBB73783EBC9BCEACBD252761BC7B6BB93CD0DB813D98DD45BA6941C53CFD4204BD351E923D86B0C8BBF13D56BDE90C8E3C78BE473D92FAAABCA6F8113C250285BD60E0A83C05C76D3C35647BBDD344B03DE6616A3B454EAABDC2A6503DF081D53A995F253DE71E89BA31721FBD11EA9CBD997A5A3C18887FBDBE47843D5967263DDC7DA1BCEA09003D5973A03D6F3799BD60C7903D3B73753DD9B8123D1B6EA3BD9A4A133D231565BC5846853B3F0E5A3D3D0B08BD0E22AEBD2C1399BD10D2623D14FD8F3DB14DEC3BAFF63FBCC173013C98FB4F3C549353BD9EBC42BB361B9A3D8E54BB3C312AAE3D09C92D3C0C665A3CD450DBBC3E52B13D807724BD21594C3D56B3CBBC96EA843D2B198BBC5D2D803D86DE603D0067323DE371ECBC6C4687BC87C99BBABC2401BD37D170BDF3C51B3C84AF9ABD43873A3DBD9940BD6BF2953D50047A3D1A538D3DFEA09DBDA4F76A3D98BF173D1E294BBDBB15AABD50CE993D3B0F38BDDD0243BD8EABF53CA07A123C7713DB3AC9FBA6BABC4E9DBDDDA6463D2261B23D7C70EA3CC1898EBDFCB3733CE4D356BC3AA6A6BD14757D3DA875803D6BEE7E3AD082973D39F8973D425DE23BB83E913D247949BD8AEB833D28E0C5BCAE43CF3C7199AD3DB4643C3D488059BDEF5CC7BB610C303D443DD4BC1B175C3D5284693D4FEEA93D671CD1BC5119D43A9A44413DBE9A53BACBF6A5BDD9C7E33CA062A3BD438990BC25E085BD19921DBDCEEE8DBDD775603D450FB3BD8FAD81BCE26B5EBDD8089CBDD252BD3CF52BA0BD3B1983BBF9BB85BDDAD4AE3CAD57773D50A8AF3D5AB875BC8BB7753DF27E07BB25AA25BCCE9C9D3DD65359BDA8D69BBDE07A43BDE5C9D8BC12EEA9BDE4EE07BD6199F8BA93BF173D88FC14BD42864B3D1B61893CCA8C20BDBB5298BD77C220BD4B80B43D0CAB6B3DA1FF83BD8D80A7BDF0CA40BD133E493C45D59BBDE18D4B3D7643ACBD88E6A1BD22B6A93D610F8D3D04ADF13C1562B43DFE01B03DE12C903DD6F7B3BDC515823D066E78BC903C9D3D0C6019BB7AEBF2BC5D5CA0BD0061903B0CC1C93C1A6E843C4083A5B9021BB8BCDC0470BD2080A4BDE45032BDEA76EE3B65EAEEBC339EA33C85CA9CBCB6866A3D985C4FBDAA3EA63D3A05DD3C47D7B13D9A8CABBD417035BD77EAAC3D96340EBDF13F5CBC8A1BF7BA540AE63AFB4858BD3F09EA3C5FC614BD4C906D3D404097BD5332A93D45C342BD039E4BBCA450593D13CE98BCC24A043D95447C3DCDD9B43D8160A33C36A4D9BBDDC4B43D793B093DC3F12BBD4F07A73D4B0F80BD45F689BDA264AB3D8538A23D486BA43C1D6D6C3D107DE0BC5F90443CC182923D6A679BBD597B3F3D14FB50BD9CCDC23C32A501BDFA22873D5F07613D41A6AD3DB275A53D708E6E3D24D88D3B6740953CBCE5D03C86C6EFB9748309BD1F892B3D5234143D1F942EBD60D7A83DB6721FBD74A694BC4703AFBDA7AAAB3D9AE0943DCDF4013C9EB0A5BC82C5733D8029943D83B98E3D2304EBBCEDC5ABBDA4DA02BDB18930BD88181D3D3950AF3C78478C3DD24A743BCE25903DAE21833D09E636BD161530BDEE8E773D23D6493D54868B3DFD5E063D72E8273D444CAF3D0ABFB33C9BC077BC0FEB61BD56CAA3BD9876AFBDE5D5CF3C1377A13B9C5B3CBD31B896BD1C5B2CBDBB58A7BD47E733B96F66953B9FBB513DA1024A3DEC0F243DFE89403D79410B3D1CA5223D238C6C3CB4B387BD2895A5BD00D0A8BDAC4043BB68D7213D12BB95BDB32A923DB47A86BDA39F1A3D13EE74BC9A50953C70E12C3D35CC9A3D72742E3D9CA466BCC9D938BD7ABF273B5A079C3D6EBA983CD84694BDE72B383D86A7A4BD4B4A94BD039A0A3D1FC54B3CA002ADBD28C5A8BD0FE6E6BCC13C7BBC000226BB0DA817BBA2D4E93C1CB8913D63C8053D39633C3D8F2A283D563EB1BD8111503D053551BD1E9A48BD81B8493DC39E14BCCC7B9ABDABA1B3BD7079D03C6A33CF3C3B1426BDE972C53C6D50BF3BDFB1723D2C56493D3E794F3DE01DB2BD93819A3DBEEE5ABDA7F09F3D71355B3DE3F0E6BCC13C893D037B8BBCB70495BD0B72243C28A9E73C301E99BD4DDCB2BD2F1A9CBC82C588BD8DB3813D2DB113BB39253BBC337C82BDD6DD95BD9423873D2076CB3C1E2F8ABC35583E3D3D03A93DC38E153DB7F136BD8498EBBC0447843D2B9372BD2515AEBDE6EC14BC9A5D18BB0299B83A50C2A3BDE3D2153B4AEBA63DD935DBBC5EF3D4BC78D7B53CECA3A93D4221CEBB504B75BDA92490BDCC731EBD2869ACBDD4C89B3D0F19E73B06E4453D38FA58BD3D538B3CBB5BBC3B7EBC433DF7DE9E3DC6176EBD248A933DD3119D3DCFC7A8BD8BD69EBD46ACE23B2192A03C6C3657BDB48B21BD3ED870BDBA1435BC0E5AE63C385E273D4EB8ABBD50B5DEBBF98F4C3B30B39BBCE98E87BD0C3DED3A7F5D283DCBDAB7BC72C0DFBC482143BDC05C6C3D16F790BB559A8A3C1B835EBA9AC10DBD45631E3B5112FD3CE148E7BC1E3B123CC5AC893D00528BBD2AD2F0BC1EA394BD08A7463C71A4A53DF428AD3D870C893D916D82BD9DB1E4B94D1B0DBCA33D1EBD1D95C53B0A58453DF5ADF23B20E1A83B72ECB83CE5B7A6BD8CD86A3D424637BD3B8C563D55F8123D2C618CBDA891A8BD5195E23C3B6A42BDD7B81ABDE91E253D7DDA6F3D1802923DD97C8BBC6201653C7B68793D99D0A6BD7B76AD3C911E293D7A88B13DB2F0DC3C739336BCBC8AB43D29B5EA3BD08F193D6E20993C5F14703DB132F43B53C7AB3DA6E3B43CDE5F6EBD41D1273D9FD559BDE5ACA4BDE5B7C1BC414D7EBDDF33843D519D84BD4DB312BDABDF633DC35FAD3D6C95CA3B3B9C4DBCF397F2BB6F47853D3CC160BCB42F98BC1EB49F3DE3C6693DE0436B3D5B249D3D0E7F383DC769313C013891BD904A66BDF3C1A8BDC37AAE3C3BBBA7BD602C6F3BDA7E7C3DB3917CBDF208BEB9BB88713DEB2990BD8801823D4D26ACBDC208D53B9492E6BCA6811FBB48D09E3D63CB1FBDD01895BD7989D13B92C7A73D4E5EE03CA61FDE3CF15F25BC062BFC3C7A172F3DF70886BD9D46A63C55ED55BC3B6EFFBBC044773D3E242ABDA166743D1AC1533D9C44A0BDBB1F463D8A2B9DBD44A4823D5CA90E3C523791BC86E354BD3498ECBB1BDE1A3D657382BC8765B03D0B8BADBD0799B03CCFE333BD25AD9ABDDDE58FBDBA03043CD658663D7AA86A3CE1CA94BDCDF773BD6FBEFC3C696D3A3DE5F131BC763B5D3D740792BDE0FBA9BD61CE9D3D4CF0003D90B86E3D9F07B03D4330583DDE4D87BD16309B3DF70877BD112C45BCDE18883DBA6B43BD5C7FBF3C0472F9BB551DACBDAF5317BC997692BD3158F83C21DB2ABD00B61A3DC5A602BC76AD6CBD84409A3DE7D29DBD3CF0663D4BA323BD1F8316BD4CBB94BD8A7945BD8E9644BD1D19923DFBF89B3D1275A13D8D76BD3CCEE5F1BCA46E93BD981E1EBD2CE2773DE8847A3DD71DA03D31EE53BDB8E114BD86B1663D68839FBDAB89963D02E0613BAFA6233D1A13AEBD97E3ADBD52C1F13CCBD4B1BD984E773D12114CBD52EC86BD8740FCBC423FB63B4365AABCC0B22DBD5AFE653CA8F14E3DD37B5ABDC336B03D9DE16B3D4814853DCDDB8E3D88988F3D45998D3D95A8EBBBFE5CE2BBF28E3BBD0CFFA73D0BB4D33CE09328BD688EA73D0F8883BD9CA3C53B46548C3C3C6D483DAA320CBD18BC9E3D6AEA40BD38F9AC3D426EAC3D0CC02CBD88E1203D0384153D446A54BDB01CB13DA105893D7E88073C0999743DADB259BD31932ABD30FAC13CBF46453D340109BA0A10833DEFA7643CC819303D7672D73C79DFA3BCF336A03D09AD193DBC5AA33D434D11BD192692BD3E2B99BD23278ABC5EFC073C2F844ABDF38A6F3D44B6D9BC3ADE77BD80F0983D448FA23D597D583D9777B2BD92DE86BDC31DA9BBFE87383DE5E8A6BDBC53B1BD00AEF73C2086FDBCF5313EBBAFF7143D33A8F5BC58AD13BDC10D98BD12DE933D31CA933DCE61863BA99C5CBC9246873D926B923D38FF1CBDCDB002BC7757DA3C6BFDB2BD8A178C3D7FA54E3DD027A63D37D5593D9D2042BC81CA21BD25549CBDC837333DD786973D012CAE3DC7E73D3DD351A1BD584B8C3D4ADEE5BCB9A2B03D7C4DE93C4FBB9ABDE083393D45E46A3D8DCE6EBC6D9BA5BD129CB1BDAB0AB23DF4D6823D121997BD1476583D0B4F823CAD7A54BD1C1BE4BC11EDB0BDF4689C3D7677B33D17E51ABCF482F7BCA5D5B13D0EBB0A3C3C0C043D0F9C33BCF4C7943DDBD05EBDF32619BC117BA7BA1DA49B3D10B0E9BAB63FA6BD5EA9853DEC2108BDCE44DCBCDE07DFBC272E433C61AB5ABDE64B0C3C2C89C73CA447283D68DD993D13A2FABBB0848E3DE31C3ABD9595943DC8497FBDD796A7BDAE15653D4040B23DDF25AEBD25C0B33CACA376BD67AD273CC6F40A3C5A64F2BC8C38F4BC9F9C97BDDA0529BDD9362ABD34E6993D2954EDBC81110CBD61CE30BDB7F25F3CCB13F9BCB1924EBD3FD931BD8B2681BA254565BD08A806BDB51AD83B5230D8BCE4CAF5BC5B3FE7BCEE9480BD03BBEF3C0917B7BCF7B8943DB48BB2BDACF40FBDA10B3E3DD57D763DDF99D9BCB37ACBBB1CD9A9BD5A84913CDB3D5E3C9B9FFDBC88DE803C8F0943BCCC3F00BD32896F3D17FD373B8754A73A3DAC9D3CAF32F5BC1D5480BDE10DA83DFBD7833D6333283D91E06D3C637637BB15778BBC83429D3DFB1EDB3C044914BDBEA584BBA40D66BD70ED0EBDCB55A2BDA41DA93D0AB9AABDEEC5683D4D7C0ABD6AC1CA3CD54D12BD9C3EB1BDF0D7EF3B0E25163D2E42B3BD9E73B1BD886D83BCB072B33D1479D53CF6FB703D974F9B3D9502A93DD959203C584D1D3D4B641DBD82F79C3C9FD065BD3D01A1BD4BB18ABDAC6EFFBC957BF5BC28748ABD3771B3BCD979C93C938834BD051B3EBC4B2DCBBC0CAC443D48C5F03C0E19F93CD268A73D2B3AC03C771A2CBD7F20843D57ACB83C70D1A63DA62A8E3D89705ABD07321ABD342E0D3DC16DAC3D21D2A53DAF20D23C3660A53D5F5D00BA9CA386BC4C15AA3D1C65DCBAE0476F3D8580B43CA36664BDF0BF613DBFAB813D74EE97BD09428BBDF15B90BCAEBCE0BA29257EBC7E9538BDC39B7FBD0BAB903DFA6705BC41DBA53D3D9D3CBD138FA8BDAE717A3C7E0801BCC262713D52B3A73D0B1EAF3DF8FA653D73D4403DC7AD79BDCFBB1F3DFB2EAB3D6DA38D3DA7AA9ABD1FA0A53D398E8BBD6024673D458B06BD11FE9BBD8C43C23C7AB2B0BDF8DD343CE9FD6DBCF7AAE33CB42D733D7C1C763D63CD92BD208C85BC1AC3663C3DBE36BDC341F43C600332BD6C81A23D542CA43CD7E00F3C47CD903C55ECC9BC5FFCA7BD705236BD4AA1043DD41E3FBD1A67803DA657723CFAB7BE3C142086BD7C1D403DB54A553D49343DBDA727A6BB8DB17A3D7A95503C3B17AABDA0B0783DE28FEEBCF75B873D6DB1A73D10A9AD3D8E6478BD765ED3BC187A4DBD9965E4BCEFD290BBEC268ABDB82BA63B8560D7BC221A873DA2DF8D3D3D229C3D92F68ABD72512DBCBD32363D66AB11BBC19F34BD0BDA633DF4371BBDBFFC873CADC7CD3CD242ADBD8C631CBCEB98EF3B35A00C3D234C4ABDA79A8C3C1ACDE4BC662ADC3C8E5220BC54D541BD56FCB13DB340EC3C7549B43CF1B3F3BBA4CC743D8A2357BDE4F5A53DE1F1903D2AD2973D55EB423DC153A8BDE75D613B951C593C49F62C3D579592BDA95E643D43C3953C06B7AE3D59390CBD495D4EBD0B70703D32FE15BD3400733D185028BD7F089DBD844C0A3D3031A5BD55E46D3D74F8893D12E2803D2511833C35A05A3CFAFAB1BD89F429BDB45B463DD3E82FBD5D26A73D8BF91E3DF10786BDF4587E3C790745BD70DCD3BC882E4F3D2C25A63D0A9C263DB5491DBDDB45ABBD0446913DEC4D593D86F31139A428DEBCAD53C3BC12F3903DF83768BC7355A6BDAC24BF3CC029683DCFF8CFBB6B7EB2BD0A96B0BDC49563BD446D253DB84DD2BC66ED223A27DF493DACE087BD896DF83C2394C23CF534843A562E093D78068ABDA62837BDF207FE3C760347BD09BA4E3DC83F893CD2D0413D0041843D7996193D0C1C293DFFFA2BBD14E55B3D70811B3D94BF85BDDEC763BCD216EDBC4C86A73DD8051CBD68DFA4BD0B6D603DE9D1AF3CCF88923BEE0195BDC2B11E3B0301AC3D1A74B13D9E24A4BC168538BD56C2343DFECFA1BC39C92BBDB69BAABD621536BDA3A0EDBCADFD653DE1C471BB7AEAAE3D75CDE8BCC87989BD9B7A11BA3214F0BC1AA31F3DFA21543B8FF0843D0BC7B3BDD60C033D144C72BD0CE3423D7F038EBC94ADB1BD4F3D763DCE0D433D7E22AE3D574871BC4676353DCCE51CBD9D692A3C10613B3D4543E23CA94C9E3DE3E570BD2B56BF3CAFAEB3BDF1AA873DCDEF963D437D983DD1255BBDD4A9AA3C5F545C3D77A43ABD567BA2BD8598493DADD62CBC5984573DF7EE66BDDAB0B3BDDA575CBCEB5A4ABD291DA9BDBAD70ABD331EFEBCF731B43D5E10853D4EF41EBD3C13ACBD54A7E63C0B936ABB0D14143DFF4C183D616705BD71AE233C5BABB43DB24640BD1BAB05BCA8B14B3DDEEE3CBD60BA983DDF3FB23DD56BAB3D642A5B3DB8E0AABC892F0E3D9645A4BBD2AC333DA9F4A03DF0D442BD8B9C383BE00EACBC9FF5B73CB9A6D2BC8FC5B0BDA30E55BC78E45EBC2C9390BDD932323D296B153C1C6005BC55FE64BCB7A148BD8C4D013D9D7BE3BC35FC7EBBA064013D1B4592BDF74794BC4B98E33CF31C0FBDA4C222BD438D943A553AA4BDA839B43AB481543D7B0BB4BDBEDB8CBDD4C1E93C389E3F3DBF328D3D984A8EBD790857BD26FBAEBDC8C0FB3CAF52BEBC170C3D3DBB0BC63BE81FF03C863B213DF76AABBD909E23BD389645BC515926BDC0A9B13CCE0461BBF44209BDC6AF9DBD997881BDCBBC60BDFEAEC9BC27DB10BC1054253DE36A17BDA18CC9BC7C8674BD6C208B3DC12D153D2CBEACBDAC15F93C2F6B433CABCC30BC73DC85BD663E79BC8600103C2B6989BCF1C6A93D42D1313DA7499E3D9DEB83BD7A107A3DB8D984BDC07DAA3DC22C133D44AF943DA0C4A53DB571D33CD5F4C23C2BED50BDE420B3BC4B11043D9238973D615F25BD7BE2593CEE39AEBC2A78203C4811833DCF68003D5112823DC8E2AFBD0D8C44BD384391BDBDA2A13B38B3DDBADC2A863D88C960BDBA3CE7BCB62BAF3D31025C3DFBC051BADCF600BC1E9DAD3D581F88BD7628563C016FF6BB31C4D0BCD66A073DD70BBE3C5B14B0BC5CB4EBBC75A58ABD705C92BBCE049ABDA47DADBB20DE4F3DE4865DBCB66E8E3C94435C3D3014B0BD911493BD8843983D666678BD912F3F3D80B9943C9C11463CC425613DEF974B3D53810BBD0A08733D5E8647BD63F387BDAC2BBC3C3788093DC9139A3DD73322BDB6F4A6BD9F5C193DDF1093BD362BD93CA07E793D4DBE693D3099A23CBC47AB3C1D3B833DB649473C74956CBDC5FF7D3CA838DFBBA2CEC5BCF4D65C3D69012D3D10DE8DBA577F363CEC29863DCF218EBD00A5A73DC7D4A23D4C8684BD6B6D99BD662C733C5B89523C8DED6ABBD5302DBDA6091B3D354D5FBCCDEC14BD5720CCBCB24D863CDBDA0EBA59F0553D119ADEBC1C5BAC3A95BE14BD472B963DB800673D15FF8C3D86F689BCEB91D9BCB663EABCE1433A3CC3990F3D880A78BD3B419B3D66C22FBC3B55ACBD73A8A03D199B463A36BE2F3DD0347C3DA762A6BC4E02163D4D818D3DD8689FBD1DFE62BD25677B3D2E3E9BBDE163723D49E8D23C019C533D5D02AE3D6AC1703DB33A9EBCC3A7223D9B8D80BD909F8CBDC9E194BC6AB2933CA13D223D6C4ACE3C570272BDD4DEBD3C350FD6BC513A87BD65D889BD59122B3D151F973DCB1B29BD06199E3B2F544D3DE2428A3D88A96D3D528CE7BBE2318EBD01D6873D4BD561BD321171BD5981393DCE97AD3DC8894BBDA112903D6CA9863D27A720BD2867553DB02990BD83E7B33DBEE9743B30229B3DA276F53B240B363DB4C52A3DF778A3BBD218B0BC62AE45BD61F2D7BCDB68B0BDF619A93DA173A1BD5C8930BD944070BDBB0C833DDAA28DBD82321D3DE9D6A03DC7E1BB3C02D04D3DD343B33D8CA3663CAA260C3D3F9D9B3C9E43613DC90E2EBDFF46A33DEBEE9D3D8F899BBC7CE89F3D15C4003D0DA6843D5CB19ABDD519153D79D6B23D22035CBDF966823CFD058B3D9EB3133D933B703D86086F3D51F874BDDE2C723CA4506EBCF656683D8331673D1C22003D07AE543DEFED893D9F2BBDBB3782B1BD546C55BC91E0F1BC5C04FB3BAEA854BBE1454DBCF47832BD11AB54BC9F62823AC8892BBD9EC4ACBD340838BD42BCA2BAC9479B3D166B473D8515AE3DE5691B3BC505D63C147A84BCEA66663D64E092BD2F2CA83D08C176BBE7099BBDB97BC1BC2679A03DF453C9BA4135CABB57D6B33D04391B3CF5F80BBD67D68C3CD8E08DBDDFE7273D8527983D5F208E3D678541BCEBB01639830EA1BC089465BDBBC1B33D01D78BBDC166043DE6329A3D76894BBC349189BD2F5E5E3D2A50793D821B64BDCB003C3D339C29BD27045D3DC37626BD3310B13D9B659F3C4E76B0BD293815BD61F616BD4B11B0BDFDB998BD7BFBB6BCF3BCECBC152719BDFADDFA3CDA00653DE2DF713C943655BDE15EB23D9F66933C371B7A3DC63DD0BC5C1AFDBCEF9B6FBD410A133CC27A0B3D9781503D7264D43C13FC69BDE5FA2C3D729DE73C41DC043D5BD9AD3D18FD1DBB16E1A23D24B5743D931A1DBD100358BC4CB0B43D49061EBD3FA5B23DF169683D7713ADBDDA688BBC7F493FBDB823EABCA65D67BC0AFD8A3DAD2794BD91C8433C7E0969BDCE4866BD6315123D344078BD66032D3D1A561EBDBC6606BD54FDA9BD3DD511BDAC2DAF3D75FC0D3D83483B3D153E8FBDF469873C3F1522BD893DA1BB14CEA5BD3CFD02BDA768973C864C043DEE4C8D3C58C1273DCB47B13B85AD11BCEBF4923D256716BDB4EA0FBD60921F3D3A6AA33C87220BBDC61E083D139ABB3CC6E85C3D7836F0BCA2E6A6BD697E21BB3C899FBDE71C70BD68121C3DD8962FBDA194343D14D7963C89D1243D20D6C13CF5A608BD6204AE3D303337BD858EA03DAD9CC43CD12FD3BCA47FABBB65C490BD9EE9B83BC5B475BD9EC2BC3BE13996BD2EE9B33C5C9A11BD710127BC7918FABCC1F1803CCB2F663DB471B2BCDE3EAC3C889B91BCD28FAF3D4FE863BCC01270BDADC6A33DFCD8243DFBAD91BCB795A23D2EE7B2BD253618BD6C950DBD07819DBD21C90F3DA6EFB3BDF4449EBB474CAE3D55F41D3D2BCA953D5A1F363D009890BC11F1C03CEC8108BBE7CBD03CA8C2F83B3F3ADBBC6BB774BDAA7B4ABDE781A5BCEB20AEBC4D681B3B3D08A83D62884A3DF770A5BD268633BD9F7669BD1253233DD0964EBDDD45B33DEEB0ECBC1B1FB0BD46C5A73DAAE189BCA6A6B23D4C75A7BD626E3E3DCFBC1EBDA997663D526D5C3D19391EBDDD56EC3C0148B3BC7CD476BDE8422D3D9391B33D0C00EB3C7EE363BBD9E463BDF1415CBD31C718BD0CD70DBDD044E7BC2F0405BC177628BDF8D9EFBA34D18ABD177C5CBA80CB7DBD2E1EE4BCA038A63C883434BBD8CF6C3CF033AEBD56B2FE3C7506603DE38B97BD3A4AFC3C8DF52BBD4899893D35C625BC7D34093DC03F8CBDC8419BBD79EB1F3D08CB8BBD6B5DA93D5DA694BDDE25023DB1F16DBD4A0288BCAF124A3D26F070BDB4FA833D024DCEBCBA9BD9BC730EAF3DF9F42C3D7F9F87BD1C3A583DD0538FBC2D938E3DE6E1DFBCE6D1D33AA2D344BC99E487BD15C159BDBDC2683DE78ECABC7E96CC3C9BF5853D4FF99EBD1DC2943DFF16E03C3494AF3DA9A3333C46FE92BD12FBB23DB1A62EBD20637DBDE5B0933D43DE99BDEC976DBDD183A7BCDAD86DBD53D89DBC5306873D632B42BD3CD658BD1B9F963D014D83BD69EDF43C459AA33D345FF2BC5DEE063DD529633CA26C823CBF14B0BDED9DDB3C96B0313DB2BEA0BD1252A8BD22D7AABD982C3D3CD052A93D91E178BDD6052A3D4B929EBDBD5BA6BC4EF04ABD28268EBD623A52BD5439C0BA57AA853DE0EA12BD202D9B3CA6DC01BD30BBFCBC3AD860BD44980CBD9A5667BDE6CEC9BBBBDE5CBD7C98583C9456433D66D3FDBC73AC973CAAD3813DEF6142BBC08DB13D161C5B3CA1157DBCBFBA153D86A8FABBE9FC9D3D5B82853D4EB8AE3DA60A3EBD7CD98EBC1132E0BCD29552BC14BE74BC8A38843C95A619BDFFC9A9BDBDE93A3D129CB13CAAF492BC708C593C6BA2A33CAE38023DB72F443D18D2D33C40EE2FBD6DA6763CFD60173C8BCB66BDE3EF9F3D635D9EBD42937C3A1A2E95BD89132EBD40C064BD15748ABAB507FD3CE1D0753CC7074A3DE68216BDE20B323DF9BE33BBC2781CBCD2D342BC9394DCBC10D281BD8E19B3BDA4DA903DAE694C3DD5DB353DFA7058BDC678283D8215E63C25FFA3BD98B5723DFFF06F3C3C8EA03DDB3D10BDBDBE6ABDDB632D3D205D2D3DB72804BC5086B83CD55B6A3DCF966C3DDD6BA4BD83820C3DADF890BB86ABBCBCB35F97BDD97D86BC43AC673D2E918FBD6356B73B1117793DB15CAF3D22FC213DDDF862BC67184B3D9868F73CBFF8B13BDD6540BDDF1E973DD400E1BB52718EBDE6B33E3DC707ECBCB10F633DC380A43C00F404BD17DA7CBD3347043D1B226EBC38F89D3D8FFAB93BF58F81BD744706BD794B703D5A04D33CF961B13D6946AF3C88A9853D8AF02E3DC4749FBDC3B644BDE6CA933B07FD88BD91A6DF3CD13A5ABD064BC13C470FEEBCA3A6023C7223393D91BB8DBD8EE54CBDE4BF5F3BE37776BCC599E03C6DF68F3DC5325F3D30A57CBD749E94BC1FE6AEBDB4D227BCBBB532BDA8A594B9F32413BCAE71903DBCFF873DBA5DA2BDE9B86B3D5A4E55BDC7DA643D9C069A3D46ED8FBD88052F3D4DF4F93BF99A163D9FEF483D0B03363D9A7376BC702AB13D99D6A3BD34185EBCBE30CBBC90B6823D9CCD68BD9F27913DE50E3FBDA26641BD43FEAA3D267C4F3D1DFD4E3D06ABAA3DAF5C013D3C74C13CD5C7FBBC6C4DA23DDEFBDEBCFEA6B43D448F9E3CC04816BC64844DBDED370D3DD48DD13C326253BD820DAC3D3B1ED6BC62E54BBDE3D7443D421F28BDCB9282BB463125BD903BF6BC29AA0DBDC7BB29BDC76C23BD1EEF38BDEEC892BDFDAD3CBD9A72BC3C6156903D918999BC1317A33DB1B59CBDF0EAADBD226B773DDE15613D2112ABBBCD6DDB3BDC29B13D03FBF63C17AE01BC1CFBA2BD88238FBC36950F3D2267F33CBCBEB4BD80ADAF3DFC655E3D20EDF4BCFF3094BD23AFA1BC1FAAE0BCA5DB5BBD3607A6BD6FBDA63D9D19E33C4642ADBD04AA953D0B8F94BDFD32883D51295A3DF0960CBC1B412DBDAB919BBCB57E43BD9BA0023D9FEAD83C97D6B1BDB378A43DA0FDB33D8FE91D3C65924EBACA7C83BDB241543D1FF97DBD44378CBD3464E0BB8AF645BDEE8021BDF2C59BBD2C91A73DB