#map = affine_map<(d0, d1, d2, d3) -> (d0, d1, d2, d3)>
#map1 = affine_map<(d0, d1, d2, d3) -> (d1)>
#map2 = affine_map<(d0, d1, d2, d3) -> (0, d1, d2, d3)>
module attributes {torch.debug_module_name = "ResidualBlock"} {
  ml_program.global private mutable @global_seed(dense<0> : tensor<i64>) : tensor<i64>
  func.func @forward(%arg0: tensor<1x16x56x56xf32>) -> tensor<1x16x56x56xf32> {
    %cst = arith.constant dense<"0x18C0693D2B39953CBC1E823DAE1C49BD578D843D837D643D0F6596BD4F31923D1B1E963D6BA9513C4BF50CBDA0A459BD63626CBD1655ACBB8B56303D1B78B5BC1BE9863CAE79043D38983D3DF204A7BD17C386BDA8A5283D876F96BD004566BBF34C433DFEAB1A3DD2B78D3D563837BBEE8860BD8EEB423D2A74853DA03E713D3BE9BFBC08C983BDAB02EA39A42F92BDF80798BDF098BA3C58AD873D40213CBD465AD0BC2837A03D40B6AA3B5895A53DE0F2033C73C893BD3EA8A4BD88EA993D767F5FBC534F803D803A2DBB00F8A4BB7BDADEBC83D4493DBED7523D36532EBD871AA73D9698103D4C1C9EBD26B3543D36788A3D705A9CBCA0E8C2BC00773A3D9626183C13774C3D16B54BBC40AF6C3DAE20073D368B533C6074763DBEB62ABDCB5B753D1026F03CF628783D28FF1CBD8E6657BDFBDF913C40D7EB3BC8525ABD9317453D563E893B839366BD064F1E3D9EBF493D9622A13BA6DEE03C40A6B23C90B232BD980655BD50E6D8BC403ED83C407341BC20AE58BD404E49BCBEB9453D5B89FE3C5B650A3D58696E3D6B1A8A3CC6E9B33C18FF893D807DB9BB6E49253D23E64C3D26D0433D96F2693C189783BDAB4E1FBA28EE00BD20F4A93C50FE29BDB8847DBDF0750C3DABCD633D2E226B3D46209F3D98B895BDBE78223D768432BC6B95023CD6D1A43D8F4F90BD8BB8A23D563D573D409AA7BCC00012BD28A70FBD2B26A13BCBF8223CF34E753D032D0C3DF68F5E3D4676F7BCF6BF05BD7661093DB63A6B3D908719BD0E694B3D70F3AEBCE02A4C3C9B32A6BDDBDDF6BC64778F3DE05F6EBD6E0C943D68AF2DBDFE92A63DD04E6F3D489D853D9619A3BD074B9FBDC0BC093C4BE26FBCF24481BDD453973DDB70C3BC0B85A4BD78DCA73D72D6A83D80CE32BC13F6A5BD020D9C3DD39E84BD16300EBC5C8882BD3E968CBD8BFA383C3B87FDBCA46B96BDF69F68BD4638693D17CD8B3DC012C1BBBE03263D48AA31BD9F3B8A3D00ACE53A16248A3B06A79DBC1BF1A03C53A95A3D6B76BF3B6B5F163C66ED993CE63F8B3D5E94213D565B5CBB566EBB3BFBFA97BD13FD273DF65435BC14D082BDC64E553D362F8ABD960E96BC8BBB1D3DB61E23BC96FCB9BB2BFD303D4BEDDA3C14CD843D18945FBDDE625A3D731834BD035186BD4BAE923C00007E37D8A568BD8E077F3DD3AB57BD028480BD17989ABD6B2D6C3D269F19BD200012BD7CA09ABDBE586DBDDB208B3C2EAD693D567D133B78C043BDE35D6F3DC39437BD0091F5BB68FE763D48A89ABD666CCFBC004CAABD1B6297BD2822253D644295BDCB4558BD83AB463D96273DBDB3CEA73D906612BD93FF53BD360AB8BC2742A4BDC0F6FBBCD46289BD6831943D18CA7BBD485C3FBD966B1B3CD67E03BCB64A94BC365DBDBC084C1EBDC018DCBB1072583DBE931DBD5B46123D439D463D03B02ABDD608283DF6CB3BBD2B20363C78D794BD7368A9BD527C94BDEEA55E3DE2A2A63D1ABD92BD80F0943C9F6E82BDABD30A3D6B25F93CEEFE70BD137140BDB6F7793DA81432BDFF28A7BD169EAE3BE0F8953D7B69EB3CD63811BB88E327BD2F90903D7435A93DA6067E3D268D46BD9B46403D18FF7BBD96FF24BCA6C780BD52E085BD8BC3F03C9B2D8ABCC015E4BC20234DBC4F2C94BD23088C3D202339BC1B57813DA00D9EBD50F68A3D1E7E99BD33C8313DF020103D872BA03DC6EAA4BDE2E684BD32E4A0BD5EE55B3D3705873D0ABFA9BDB6E5403D17B8943DEBBD7E3D5B0B9DBC809D9FBC18211B3DB8FE9C3DD0B2453D2B93F8BB9ECA4C3DEA99823D001CAA3C08752D3D4036EEBCBBEA563DFB97EFBCCBDA813C00BA143A50716D3DAB6AA93CA82E0DBDB6482FBD7C209DBDCE3D04BDDEA1693DDE96213D560E9FBD0BBF58BD8F3CAA3DA75AA13D30F1083DBFDA863D86A1E53CB8A199BD2BBB31BD2BA1A7BBC0F0C43C107F523DB61B193D2ED667BDA367233DEBB792BBBEF45A3DF03AD53CD660D8BB9BC6B8BCB6FC7E3CC6E489BCC06E503CB09A8ABDC0EC74BCC009D43BA0086F3CF3A61ABD00648239A6E5043D10D90BBDD652923CFB85DF3C8079183CA03B54BC2B58D8BB1686B53B5675AEBC2B55BBBC56B55ABB0B0848BC068C26BD6E582BBD7640F0BCCCEB99BD26AFD83CC35A4D3D589578BD4A3590BDFE5670BD388191BD33180FBD20D20BBD86B57ABD5045DABC4BF450BD806C4DBD4F82873D66608DBC08153F3DE675863C6B2F83BC30DBF6BCAB52E33936C02ABC2B5589BB56B0B73C56588BBD80D2983BAB83B4BB80BD50BC08E767BDFE816FBDD6EA143CB0BD9CBC2E244F3D7E4E18BD560984BAC07C473CD0E098BDAB63E7BB6EBB46BD56104F3BB6599B3D26AB67BDB42486BD4B8EC5BCC0E50BBD9BAAB23C020E963DCB39973DD27E87BD16E3D63C408EADBC6F3DA03DF048543D56097B3D60256FBCBADB903D0BDCA73D4003893B0F7C8DBD08D1453D9B89193D0E31093D5084883CA35A753DA3808CBDEBA606BC50E3393D4818A7BDD0FC8ABD609A1E3DB3CF743DF05B47BDA08F333DD6C772BD63908FBDAB3F7F3D4635F23CD867A9BD56C79DBC46F85D3DCB5354BC4368553D6B258EBD6052A73D688507BDF6A84FBC88880FBD8A7588BD1B16993C533B693DDB2786BD2BF2C0BC0ED54EBD6E5C23BD04F4A33DCBCF5E3D76269CBD6A928C3D60B08ABD80F131BCB6B81ABCCBCB32BCDE824E3D56F25F3D18BF7ABD4057C7BBEE2358BD2B115B3C887B543D1660693CDB25A83C2BA3C7BBD0E60EBDCE358DBD33BE49BDD842763D904F983D4E5F603D96D1C9BBC4248C3DE3C2163D0E5A88BDE056F73C4B247CBC460BECBC8B1B943C56E9963CC27B923D285C04BD7BB2873D4F35813D934807BDFC0394BDD6642B3C23B9473D5655993C568DF4BB06E9CEBC5F62813DE3AD6BBD40DE3F3CA87990BD06B314BDCBEE3FBD565440BBEBD0C5BC786D53BD2E6F4B3D2BA5C3BC00AF99BCF615683C6C3D8DBDC8352D3DAB0F793B838994BD178489BDAE1267BD6B955A3C76CF463C80EEB33CCB75213DF48F81BD6FDA98BD704FAD3C9E5A253D30795DBDAC6F913D6661CE3CE061AF3C9F6B8B3D17BD8B3DC0EB103D406DA33C26F02C3D02E393BDD673F5BB2BC05ABB609A10BC942F8E3D80F450BB0C0097BD163B08BC16CC983B2BE02B3BD6837DBBD3B169BD405453BC974F8E3DA63A24BD6B4556BD56458A3ABA9F9C3D660AEB3C7BE68A3D1EF992BDABB48CBD2B1B0D3BD3D35DBDC09BC4BC901384BC33287C3DEC1E9C3D9B8B9ABC37BD943DC72E973DE33F213D104FA93DAB78DDBAC86B4CBD278AA9BD483C93BD081D7ABDE84E72BD6E874F3DA39277BD6B2063BD7C6F9EBD733F343D38EC953D06B110BD67BBA23DF6295E3CA0AC67BD1668693D1737A93D8EBA9CBD70E6AFBCAB6B2DBC40508FBD10F833BD2314AABD088317BDD0B988BC90CC913C24679FBD2BDA91BCABC563BCA46F9ABD90666EBD8006A43C602CF53C406C053C380E4CBD1BB74ABDE39177BDD63B6BBD4BEF6CBD66AAF33C809B64BD6B850F3DAEFF0FBDEB331FBC96A0B0BB80B54E3B83FA92BD664436BDD6CAC9BB3BC46E3DDB29A63C5EB01D3DF79F8CBDFA06A83D808E7A3BE635773D003CB53B2021513D362D053CAB82143AEB21BA3C2A12A9BD68AF6FBDABB99EBD88AB57BDAB487FBA035D543D06979D3C3B20863C0B06A8BC504F2BBD8385973D70F9F7BC539C4D3DC039BCBCCB537FBD5B4EE43CE3D71ABD005D8B3D0017B8BA2BDFD9BCBAE4983D73F3483DF60B23BC00CC8D3CC08B05BD8B8D69BCF7048CBDAB4988BA4B979CBD27C288BD363E333DCBCB6F3D004791BBB8A56C3DC08F70BC027296BDD62F963BF28F93BDD84B223DC0D7BBBBBE1A513DEB6F7DBD7E7E263DBC3D833DA33313BD72799A3DC8E5573D6B908B3D069CB4BC6B83FABB564A4EBCEA529B3D98EA00BD5F91A83D96F506BCAE931F3D88123A3D67CA89BDB7739BBD4367A33D20D4CA3CC062803BC0C29C3BBC1491BDE8CB2C3D126DA2BD1614143D9659C53CEEDB133D0F22803D132A2BBD706D48BD3B6CCBBC933B0ABD830F723D3BB0A73DB62F5F3D885491BDDBD472BD8B8769BCEB869DBD5B297C3D53B07EBDEEE189BD1B3B833C7ED917BD289C5FBD0B856A3C5BA6EF3C1A9784BD27C987BDC3D14F3D10009EBC6BA613BDB427983D862C63BD3BA3E03C68579A3DAE9C5EBD365B193C9E52643D8B0461BC0B69543DD66F933CAB5248B92BAD7DBCF888A9BDBACF9FBDC3EB11BD2680ABBCD84189BD63D33A3DA6FA5D3DAB95D23CCADBA53D70E3C73C0BD3E93CABE579BBB60AA03C5FE1873DC3856E3D9B9FFF3C56639BBA830118BD804AF93C031A7B3D40DFF93B005602BC12708B3D46A4853D0C84903D5CD69A3D00E865BDF36A593D8B0519BD76B1003D173C833D430C9ABD9C38843D7B0EDB3CD0A5053D0BAD863D361844BCDC979A3D743894BDABF5513D5BCB93BDA0D322BD7C7D93BD74B59B3D0B65AEBCC777A9BDF6DD8FBCB0C6DC3CC8474C3DB67BE8BC80A7D13C16B0973D805C16BC4E8516BDA3456BBD368EE43C4E11803D802293BB96E26A3C4B80E1BCA3B528BD6BD7A23DAA8C803D80E056BC3B1987BCB6999A3C00A4D23AFBA8CF3C806727BDEB962C3DE0F781BD5B6B143D00465FBA3B958C3CB6D3453C327A9FBD8E4428BD36CE2FBC860F0F3D8BB760BC0080383C36A533BCB6CB2FBDB8A58A3D1BFF22BDAB7CD7BC78B62B3DB7DA833DB4A89F3DE6ACD53C906D763D0AA8863D66D68C3D70641B3D3BE5C53C8B7D5ABD00C26CBA94568FBD8E0F0FBD381D0F3DF0CB753D57A89B3DABB602BC2FE68EBD40D5BEBB38281EBD9B76673DF68F123D5B27983D367361BC80C846BC574486BD6B0184BB985A1E3D5BE3D2BCB6118E3C804828BCCB37E0BC9078423D1B27283D10DC103D7EA78F3D778A83BDDB0378BDD696793CA64FA1BCA06050BC0B50FC3CFFA6A03D80D2233CA09712BC8EB46FBD46BF63BDF6C97F3C30D7B7BC2B54793C56DEA23B102BA23C6B284ABD908ACCBCF056A33C881C933D608C593D12A5A9BD2B67193C46B95E3D4000303C60B82F3DFC8B943D8F98A3BDE8847C3DE01B523CB0D9893C56125B3CC60477BD860186BD463FFFBCBB94913D90F139BD2B0242BCC819A2BDCE72913DBEC8873D98A536BD860859BD4EF04CBD5EF855BDE850113DABCF8BBC166E2EBC56EF0DBDFE39A73D6B8E753D2E41523D30F3B3BC6E6D8CBD6610AA3CD3A4A1BD56D5713AB0B170BDAB6A84BC50C48BBD6B2FC1BC0677B33C129A83BDBB2FA6BC602452BC47E78E3DCB0A1EBC2079303CEFCA8E3DAEBA73BD080CA1BD8237923D2BFA23BCB3E290BDEE858B3D8FEEA0BDC31B98BDA2EEA33D2070983C9F929BBD1217853DDBDC46BD2B3DA83DBB63C4BC56A5B73B7E25733DAE665DBD33DA243D186D33BDD3E54EBD8625B0BC9B8E4BBD33BC1BBD087E73BDEB9B713D282B4DBDA3045F3D76CDF73CB330A33D94FA803DDB5DFD3C5639CC3996F0B53C6B224CBDC6F3E73C177D95BD9054643DECACA33DF3D18C3D5E5D153D2B7768BC1607C4BB0B0AEC3CB66625BDC05CFA3B78BE823DA0F06F3DB7329A3D2BF42CBD2B2B66BBFB904D3D76944A3C0BCC43BDE04E4E3C96C76ABD0053CE3A667780BDF07C803DA66F0D3D06771EBDF6D17F3CA8BB81BD70F286BCE3D99DBDC3D46A3D23FC72BD9EBC0EBD3642553D53B175BDD6201D3B2FD08A3D60AA793DABC591BAB6781CBC13B4A53D60D5D3BCABD7943DD6441E3D27B6893D2AA492BD56158E37AB1D17BC9FFC89BD1CA9A8BD68F370BD902135BDF65211BD50F40F3DD42E973D38DA76BD1ECB6F3DC887A83D9B0997BDAB53923C2B3067BD0E18813D32EC86BD1F4F963DE0F44E3C00AEAEBC8016A4BC9B9FE2BC1319A83D708141BDF69874BC3B74F43C2B26D3BCD605943CEBB668BC30E27DBD560C153C1BEE823C90775F3D607A6A3CD6BC2E3DD6B4F3BC4F9A81BD00D87F3DA86E2DBDC0B108BC039958BDE63099BD0E2B973D1601703C087C4BBD4B9B353D8320043D3BA3B03C5659943D205E62BD8BA89FBCB6A8B3BCF0FC003D2041333CB6DA8F3C8C1E8F3D207E293D8B1DC63C568C543B4612593D2283A0BD70A8DC3CAE16733DDCD18FBD3E6A6D3DA04437BC6001963D281639BDBEFD473DC0189F3CEB38AEBC38002BBD26720D3DD85CA6BD585749BD402033BC9BF2163D63D1953D2C61A23D3B5ABFBCD6B71C3B56E58BBC060C993C938F88BD836D7E3D4BEAEBBCEB75BC3CE8453E3DEB5F8F3C008CA4BD10028EBD96E683BDEBB9A4BC80C288BCAB615BBCB08F643DF8925A3DF018483D40C0B5BCEB54A33D20357EBD58E20BBDCB86FABC732C363D48A57F3D67D2A3BDD6006E3C80348C3D5E37563DCB8432BC570797BD90CBA5BCE09569BC780F81BDE074B7BCE6B8C8BC66699D3D0E212DBD9B706DBDB778843D9EB72CBD32D3913D9B4DCEBC6BDBF6BC12C7A9BDCB54DCBC6E0B5B3DBB94C73CB0CC8DBCFBD6BEBC7621E4BCAB6A74BD7BC856BD3CA9AABDCBFDDE3CE0F8543C6083FA3C004F7B3C177DA83D5BE0EABC125A8EBD8BB398BC568F17BB46F40FBD9F3886BD80B3963C2EED52BD56A1313D93C4883D1B302ABD866E393D86D7933C9674263C96004ABCD42B8EBDF082C6BCE40A91BD464A2BBDDBC5E4BC46D097BDCB08083D6BB8E1BBB30CA73DE849213DC67FAFBCF3D3A33DFB25863D3AF4883D802C743DB04A84BCBB0128BDF040723DD02C3EBDE6A23BBD665DFFBC3BFA913D06B1183DAED4653D7671EFBCAE765ABD7B8A973D600A97BD0BB9983CD8336E3D2320873DBBCFA03CFB715A3DF6311ABCEF7B973DA0CB1F3C960BD73B169D4D3D065DEEBC8E679D3D8FF1993D07A69CBDAE2C823D7A798E3D00E3E8BACB497FBC0035F63A96C92F3CB3B662BD53DB603D9790A33DA04F963C37CF9FBD6FF9A3BDF0B9CA3CC347053D801DC4BCC011DEBB38F2753D4859283D58271E3DD652A03C645A933D06A94EBD6F6291BD16C7813B96EE613CCEDF2E3DAB9A03BAF677D13C467E82BCB3935EBD3BFF6FBD9E4D06BD367B03BD306B9CBC7BD7C5BC4E361D3D484A1DBD36C4233CD2A789BDE09A803C6B6913BCD699AA3CC077BEBC72238E3D5ECD033D48ED183D4B2500BCE3584B3DBB9F58BD78810A3D53CC2A3D2B42643CEBB9F33B20BE65BC781A77BD2BDC8FBCF0BD29BD1AFDA8BDD78883BD0BB0A8BCD3307C3DD0ADF2BC76A6473DA459A13D806B5D3CD0EFA9BD8BEA2DBC3667DC3C80C500BB40DFBD3BD63F993B508075BDA86286BD56187F3B00A5A43A003928BD66D9653DBBEFE7BC23A884BDF0672BBDA3B5193D53592CBD964DFFBB561CB43C763C2A3C9B154ABD0B558F3CC34E083D66A44B3D3E97A63D2B137D3D2BEF32BCFBD3413DC89003BD300AFFBC200F3CBC8BEE22BCCA2FA33D50B216BDE89383BD80C5EB3C7B380FBD50F990BCE68BD5BC1669293C9062033D13429A3DD6F382BDE028583C3636B3BC7AF680BD18F51BBD40EF5B3C5BEB1A3D7691B0BC32768ABD40BDAB3C48AA0FBD62F1A83D1648A9BB4B55AEBC0009D0BB634C17BD36B2473D189A3C3D88013CBDB69DE73C6B1A96BD20B2823D339E3EBD5B9069BD3BC156BD2BE52B3D50CBCFBC9B418DBCAB23B73CABB0983D668A943C2B79953B567BFFBB4013D3BCDE8562BD78E0083D40D7E3BB42358FBDA092A33C23457A3DCBBE9CBC60B01E3C1A718EBDA05B1FBDB606003D562D9EBC766F36BD4EC541BDABF492BC9EEF293DE6898D3D67D8853DEBDAA1BB06555BBD4BDC5DBC3A68A23DAE5E0CBDE6E193BC80F511BC3B1E183DC6CD84BC5636283CE05C6A3DE0AC76BC6024D53C934999BD60620DBCEE936B3D9B2BC0BCAE9281BD9063193DD09A4ABD53293C3DE8BC0A3DABFA33BD8BF8F23C80E4303BD6E871BD38C00ABD36B07E3D432926BD008C2ABB56DF09BDD3A03D3D26779F3CFBDB7DBDEBEA17BC90201D3D56BC27BB4B424EBCAB54153AA67D2E3D739A953D96C0833CD0574BBD30A59D3D7BFA7D3D967441BC96C3D13B9BCE37BD109A1F3DEEE60A3DE4BF80BD70047C3DC05A86BB76C591BD106B8FBD9BB3163DB33EA6BD1FC495BDC4898B3D648989BD36296A3DF2E6943D72BE8A3D5EA4423D9398663D7BB60A3DC6153DBD16BE293DA64AC5BCF27C91BDC0E73CBD38BF6A3DF6F773BC8BFB1F3D487F47BD28D207BD70F2BC3CC3019DBD56010ABC780E32BDC6535F3D80949B3CB0C4BF3C7659AE3C2361443D2BCF8BBB602E423DC0D37CBD468B3D3D8B725BBC8BDC3A3C43157F3D56DF78BBE86F863D0B77DFBCC016CFBB73A889BD781C903D10E5A53C909A26BD5A27953DCA779EBD009BB9BBAB937CBC20EE9F3CEB98403CF60034BCCB6D4ABD80A9B7BBC83678BDBC0C923D0007FD3A3856183D6B37C6BBCBA55DBDF6376DBDF696123C368BD9BCD62F4BBC6674C7BC0FF0A03D577F943DB33402BDAB71DE3A766A523C409F573CE3C990BDAB44493A2BA1D2BCD8DE8C3D20BAD5BC60F8783C00367B3D2B79C5BC38B0833D0A42A23D5021EBBC68B7623DB40C883DE86C9F3DAB18DB3A7BB2D93C6B1ADE3C56C6DF3A568858BB6BF71ABCE0F057BC60E22DBCAB20AC3CD62E28BCAF109CBD3BCB8ABCAF5B893DC3B13FBDA69BC33C20F1A63D6F6B94BD7A3592BD00B409BC131B633D739A0CBD2BC13D3C2B04603C70D2A3BCBFE59F3D7EA7683D1041CB3C2EFF09BDEBC5E53B2BC69BBB36E42FBC36A16DBD2B10E7BB4BCB67BC8BAFBC3C6B84953D00CE583C3002553DEE25793DB0A943BDF6A00E3DD82F6DBD9E622F3D879CA1BDA3FD9EBD7424A73D901B0C3D6E1547BD766FA73C42CE993DCB528F3DAB121C3B38EC98BD28989FBDCBE64A3C20FF48BD402AFF3BC636FBBCDEC35D3D6644FFBC262CD3BCD66E68BDC6718ABC43E9A53D4BC0F6BC3E956A3D369E32BD6B3DABBB3397383DBB0D17BDB62662BD98F9953D3EB047BDD68F753B8B96033C2BEE4B3B2E8D24BD743A98BDB6326ABC0888153D2B7B2C3B3CFE98BDBB5E153D74BA803D036E9CBDBB909D3DA6C2093D36EB833C0B4E753D3FCEA9BD0068D43A6BF1B8BBD6C68ABC206E07BC5655C4370B60E93C77669C3D76648E3CF0319CBD2F2CA3BD331E46BDB8F673BDCB2F6FBCE0344DBD9E2B423D8B8EA5BC0002DE3A9BB08DBD56208B3C4E8138BDBB827E3D30CBC83C1669D43B0BD07B3C2B2C723B6E9801BDD0A316BDB688E73C8684FC3C90DE91BD56E9CB3B2BBA2CBDC091893DDA26A03D208AE3BC507156BD6B604ABDAB8B3A3DEBF723BCE05670BDD0804CBD1824003D62D2813D36AC273DA0FA49BC58E186BD5022A4BD537B9E3D202F3EBDE01F91BDAB2838BC0CFE93BD3EF07E3D5670563BAE48013D16DB5C3DA6B622BDA0F2793CB6B898BC16DD0A3D5B1FBE3C5087C03CF64339BC27DC953D60A7BABC436F8F3DF6E15BBD27FB823D16BBF4BBEB569CBB2AB995BD8BA78FBC53B20E3D80E8513B4B9B3E3DF481853D2F60813DB017D73C763CE53C0B28E1BC332B87BD8B907BBCFAE0A13D56258C3AF0CDEFBC6B86BFBC0024B6BB63F6993D8B67543CEE3828BD7643C0BC80EFDBBC56B2A7BD16D1903BEBCB3FBC80138BBD7A479B3D46B8923D7BF76E3D874F913DD3881CBDD642C7BC70CD85BC92E694BD43414D3D5603273A5039D2BCDFF9883D2E600DBDB6A2F33C565058BCC07B3F3D2E71A63D06A064BD86E78FBD9B7F853D701A7D3D0417A9BDC65215BDF0B0353DFB08C83CD07FFF3C26A368BDCB7803BC6B9C9DBCEE4B00BDB30D6D3D763714BD9622B53C2EBE0F3D38C8683D2BE377BBB38E50BDBCE78F3D16C9AF3B261585BD962BA43CCB728CBD3393AABD3B4DD83C06C403BD56A59B3D40C5DC3B107EF03C466EA3BD462CAE3C56A130BCF69BD3BCA8875B3DBBC797BCA00C8EBD00CFEC3BAED41FBDF38B543DEB0717BD6897823D80A2E33BA028BC3C284F8D3D88BF67BD261008BD6B7CE4BB0B5F1F3C0002ECBC6EAC8ABD56D59A396FD988BDA305173D8768A33DC302963DC628E8BC7663A7BCD685E93CF056BEBC48A56CBD8BA47C3CABF991BDFEC0913D0B117ABC70D7263D9EE7813DF0D5123DF8164BBD8052FA3BE63A17BDE75A9F3DA24BA73D00D8353980E9423B40C5953CCACC813DAB58263C9B5583BD3BF77EBDE004A6BC8BC2E6BC8B6C4E3C43E22FBD9B74333DF64B8B3CC0ECA1BD56B865BDBB269BBC1F8D8A3D7E48223DF0009FBC3BE2753DA829513D0B04103C00F15DBC172486BDE04974BDFEDF7CBD639AA23D007D71BBC048553C16EBC6BC579682BD30D8AABC8F14A43D80273D3BBB884DBD66C1F9BCB6EA653D0073C33A3B36803D1687F93CDBBA303DFE7292BD487C7D3DF359183DBBF24ABD60F1173D63AC5E3DDB1A61BDD0D5ABBC9669A1BD17DDA93D2E865CBDD039353DDF5B993D56FF23BCEBB74ABC633422BDD67A8E3BE0B8E93C130E863D0E238CBD260CB0BC881826BD0C659DBDC6048FBC328EA83DCB283B3D3E37A33DFE0301BDCEF39ABD136216BD3BA576BDCFBA9EBD2603C33C6B983DBC0B1057BC288A3D3DD36577BD6EB0023DE644D4BC53CDA93DA75CA53D0B56CABC13E5213D8F18933DDBE6D53CA33A26BDD6156E3BA88940BDF8010DBD467E07BD4BC771BDCA029ABD70DDBF3C06BF843CF687CCBC5621EF3C368E963C9E7256BDB60E99BC1BD73A3DB64302BC902BCBBC8E287EBD364591BC766A22BDB354733DE0C3393CC039FDBCB8D5A93D404C3A3D7B7ECD3C403EC33BDC078EBDE0DB8C3C70A716BD66F2F43C169F8F3B4FDE903D1750843DA04F76BD401F17BC8879943D56614C3B50E522BD9AAA803D0618C7BCA4F79D3DD36B2C3DEE7123BDA654833CDE1548BD98270FBDCBBD5FBC86BF51BD0B4803BD703BF63C768115BD80C52CBDB64C44BDACD68EBDE8FB2CBDC882173DA3FF633DE8188DBDB8602C3D48CA1DBDF2388E3D7B00543DECD797BD0099A5BAAB6E4BBDC049D6BCAB300F3DC0B10ABD48BC1A3D2CF6973DF6D21DBC6E441F3DFE993B3D602AB3BCAB0066BDD689963C7B8E6DBD1853253D96F47F3DBBB7513D70CD06BD06B93DBD56FACFBBF66B3ABC5BB8133DF369413D60D5143C303B933D3308993DE6DC22BDAB23D93BE799AABD261DA6BC36A60C3CD3311A3DD8C98B3D66412E3DB6A482BC9B5580BD96A6363DEE3C64BDB006CF3CEBA9D93B4385173DB8F3723D60A9223CD63B9DBB7EC91E3DAB8D4DBCCEEF82BD564C963AA01F043D2B66DE3CC0479A3B3E1298BD00BFE03B6BA3DC3CE6D4F23C0829323DA3EE22BD383C093DF8CC173DABDB0C3D6B41323D08756B3D96AC633C18A92DBD03E45C3DEBD0043C56692DBA069701BDBE4329BD73C084BDEB125FBD2BC6443C6EBC98BDE02AE53C8007803C4E7F4DBD2B933E3D0B736E3CB84E503DC3BF813DC6B184BC47C390BD5658993C609CB53C4068243C50745ABDDB94483D82F9A0BD964E9BBD7EC2403D1068D2BC8BA5413D96FC5BBCE64440BD7B31B53C969297BC60E33CBCBB0E763DA0E41FBCCB383D3CA3BD3D3D2340073D56CFB2BA8604B3BC120F9DBD6FF3A83D5A2A84BDC6E9F6BC5E1BA63DDB52EEBCBB9C39BD6B8A973DB6AB353CE038A03CFB0B503D33F670BDC69A683DC04E973D56BD673B174D9CBD808CB43B3AB09DBD369E69BD289A07BDC7198C3DE0990F3D9B5A8FBC1AE8963DF64E833DA09565BC2B191CBBE0E18FBDE22AAABD569FDDBA0BDA7C3CB02F003D5672393DDE4C7EBDA34F72BDE0567E3D00AFE03C869BC4BCEB5C48BC58415D3DD039E8BC3FEA843D1682863DA687B1BC8EA64E3DABE1B93AA0356FBC9B38183D08D0963D1662213DC8D13B3D0E3006BDC697E83CBE8C85BD2C338B3D5B56C93C7E03AA3D2A0DA93D06FF353D2B7DACBB9EFA2B3D569CF73C56277ABCCB3D373CC3E339BD002A35BA3B1D5C3D873998BD8CEEA4BDB652733DCEC416BD56455DBC8B36803C97C1A23D0BD3783C0BF44FBDEEC35FBDC653A5BC90BA3CBD9B7B28BDE00B01BD6B14CA3CF869243DF027023D4B0AF83C6E999B3D5ED369BDD636A6BC103690BCD3F01D3DF29FA9BD6C46843D00CE953D208A9CBCA32D643D185DAA3D56A3AB3CE8ECA5BD96D187BB9E73693DDE9A2FBD2FC1983DEE0887BDABEE1C3DCEE336BD18962B3D5613B4BBD665C33CAB9372BC634853BDE467863D2B1D863B00F4E8BAFB3C3F3D4E20413D4E80363D8AB9A93D963D5ABDF8490FBDDB11F5BC86D6273D7CAB9D3DA669A2BD638E04BDD057F9BC3646853CA058173C268C3EBD80C96C3D564C45BDB098FABCCBED4ABCD64F253C5FF599BDC8D20C3D665E583DBB33DE3C36A9FABC0B3BEABC2BD6B33B8E7B38BDB3568A3DA0A4593D56A8133B8B7F873CFBEA11BD7B8B8BBD1250A03D8673113D60FD6C3C003CBA39D36690BD4F3C98BD2BE50DBD5C779E3DB766A7BD96F8E03BAB3787BAFB5618BDD6767C3B5679E33AFE2C8E3D8BB7523D8BED0B3DFEA7783D00DFEB3AB4989D3D60746D3DD3DB83BD58E3A83DE84E8BBD7A599E3D13FB103D2F51AABD58210ABD783B053D807E6EBDB631693D3B79D2BCD6B02A3BF0AA31BD8EE990BDEEC73B3D76B39A3C1B8AADBCE2D891BD66F9A43DE0CE41BD00A4A7BBD35780BD402F59BDB0FB28BDB6D48EBD00E87ABCC8185F3DEB2F083DDE5527BD9693D9BCCB93D93CF0CE6A3D86C5043DB017463DABD0E03A763D263D9065DB3C70750ABDEB790CBC1EB0093D3010CABC18F30C3DEB6B2DBD3CF4A8BD8303A73D607C823C10EF77BD963A3FBD7421A53D565C303BF0FDE5BC40BB0D3D266A51BD36290DBC503C84BCE013043C609E823D8B9A5CBC2071F93C4089C93B9F7B873D3667AC3C3621203DEB41AABB0207A8BD00E31ABCAF73A2BD0B446FBDE015FDBC3BF0B73CF6D90CBC507428BD4A7A85BD5BA3353D78E002BD9B3F72BD60C5FCBC58579F3D96A3763D788893BDB3F9823DBE42283D968F263C5367293D3F9F98BD88B39CBD"> : tensor<16x16x3x3xf32>
    %cst_0 = arith.constant dense<0.000000e+00> : tensor<16xf32>
    %cst_1 = arith.constant dense<1.000000e+00> : tensor<16xf32>
    %cst_2 = arith.constant dense<"0x988E813D56D8BB3A08866EBD2B228A3BD07FEB3C20A58B3DABD74BBDA444993DD6F458BCCFED87BD5609903DE66709BDD691A1BD3BF648BD86FB35BDB6CD42BD3A3380BD3EE14EBD649B8C3DE0CA063C86524C3D70EA0ABD770EA4BDCBABE8BCD68939BB66D070BD2B4963BD3082133D1010D73C86EEF63C92928EBD8023223B60D8B1BCA29E9D3D3B08513DDEE6433D36329ABC2BD3A1BD7B74D23C1671033D2BFEA9BC10F88ABDCBAC9C3D00153ABDCEA3453D4083D3BB60AB4D3CD0FA563D26833A3D2B7096BDFA41853DEBE00F3D38D9533D182792BD40A486BCA075213C56C5C2BAC0FB0FBDEB29D5BB4033A3BD82058E3DBBA1F6BC602DA3BDEB9B95BD60E317BCB87E00BD3208A7BD64D284BD56394A3A5B1CA1BCD640713D4693C63C564E93BD9BF00BBD3B4D54BD4305473DABA42ABA8AEA873D6B7669BDE699D63C40C877BDDE7C383DBE6A483D937F6EBDEF26873DDB60FBBC5E112FBDFECAA6BD0BDCC2BC0B9993BCFAC893BD4B3F5DBCA08E57BC488269BDF666383D769655BD56A8ABBC10F50F3D26CDEBBC36FEA1BCD6B7F3BBD65F023CCB91743DB0C9A73DA0A3563DAB081F3A86FE94BD0041163CB0B7CC3C00A86E39EB25873B56FB433BB6CD3B3C4E6C083DA062BABCB080A2BD0095C33A0641BA3CDB2E793DE624F7BCAB1A2B3C96F819BC484644BD60A97B3DABC3E8BBCA12A53DCB9B593CD8232D3D7E981EBD00C6FF3C14A59ABD1BDC93BC4B713A3D96B238BDA63BC0BC3BB4AABC883B67BD601F893CD08EC23C26AF4EBD578D923DE6F9D73C34EF93BD3E8673BD1BB02ABDB2E4963D6B37703D8019AABB26E79D3DABAB9C3D56D98DB98B10323DCB659F3C6C26A53DF649CCBC002EAEBA6B44A33CAB2F36BB56702E3B1610B03B1EA38A3D80689EBD00217ABC9A0E973DAB42603B105AFBBCCF4797BD1AB084BD08CA453DE0DA733CCB3C7C3D7041433D3B95E0BC0B5111BDFE388F3D14A4A73D56B95CBB00A0E13CD68FE2BC564AD33A90E8A63D471AA13D063AD8BC8087AE3B20E29BBD76849F3C339977BDA6EB58BD836B05BD40AE8CBD1E144CBD80F847BD780C8E3DB6857B3CE68C09BD36D972BD134F303D280C423D2BBE15BD5E4807BDC65D333DCBA0383D5B93223D404B55BD1BF1FB3C3B4062BD93AF363DAE2E59BD6E6E363D36A45BBDABAA583BBE22513D163A85BC600211BCC8F360BDFBDAC33C2B1ED83BD6BBAF3C031012BD98FC99BDFBBB4C3D0BD92DBD28C3503D985B44BD2B0F0CBDABAE3E3BF20C97BD2EDD163D466B57BDEABD90BDCE2D913D1642443C567D2FBB20C5E53C93301F3DD68404BB2B982BBCE30F3EBDD3D3303D00564DBCEB44C2BCB6A29F3CA7E3A0BD0B696CBCD6D6A33B2BC7883B5877183D76BF2B3D76AA923DAB32E1B9B041C1BC3F4288BDEE3D76BD76455E3C0056B7BA2B0CB8BBA3398C3D6F3E913D5B13883D033F4C3D76D0003C8B1CD13CC0A6553C28FA79BD4BF84E3D489432BDDE1F503D70D00D3D6B348B3CBB5DD8BCA89C5FBDB0FCB7BCB00D953CD6F4123B86DB973C8B40953D48487B3D360E4EBD4A8089BD78BE6EBDA6F43B3DD604C03C13219D3DB68406BDA88E103D50568D3D1E82A13D6B3FA23C9B919C3D18ED033DB0D4D03CEB91493C4BEBD4BCA33B53BDEBB290BC26B0A83C000A46BDEB0FA9BCBBA2DB3C36EF1EBCEBEB29BD28FF5F3D8018803DEB604C3DCE1A5C3D5E341EBD1B90ED3C7B64B13C4B3041BC5E6C913D163642BC1BA8813D53640ABDC4A68CBD5BEFAEBC5E9C0CBD8899213DBC0D9F3DCBBCE5BC4B8DDF3C90060FBD33F5773D569327BDBBB49E3CF09A433D6E7144BD2B318ABB5C2F84BDA36C063D30FE963D6C4E9D3DDB1AED3CE46BAA3DA75E97BD88751FBD16AC683C608A9A3DABC995BDACEA88BD880A95BD660448BD002E3E3D463C82BD7BC576BD1E9F14BDE6F0C6BCD48486BDD679D13C2B13BB3B569B603CCBBF5A3C53B809BDD02153BD6078F33C16C99ABD66CEE43CDB07B6BCC84E843D70EE53BD16E3473CAB99CC3A804915BCEE6795BD43C00FBD36D6B6BCA0D4CCBCE068B73C30ABE7BC9633D4BB9B1BDCBCC6B48ABC0451993D2038103D13F49CBD2BF8A8BB44E7863DABA2CCBC96A62D3D206BFBBC00AA053CD3EC793DFBBFE3BCC0A260BCE67135BD2371923D4B1FED3C338B113D8B0A46BC0410A13DC8702DBD9CAC8C3D43F967BDE8A9863D6B039C3C08EC1A3D5617A23DC0E19B3C8047F73B985E35BDC0D1153C1E0955BDFCCC97BDA64BB8BC00FBB2BBFBEB7C3D9B3296BDE752823D2B7628BC2E1A2F3D86A8903C83B0523D40E79FBD1B58AA3C283F66BDDE0124BDC06B823B00299ABD96A0FF3C3003DABC9AD6823D769E143C83D8163DCB6693BDCB9988BCC05F2C3C3025023D77BC803D7883A8BD524397BDA05CDFBC58378FBD830C073D3ED8243D76640F3D6A9A973DAE9746BD569D013B5E4F233D18369CBDAEE87D3DAB8FD83C447B8CBDEEB440BD021A8F3D400955BDB62E30BDBB657CBDDCA49FBD663E7F3D8F31963DCA56863D56C06FBC90C6A73CB7A5953DB260A73DFCA69B3D9BAAC5BC406C383C137820BDD088543D2B824F3B7EF71ABD30FF2C3D6B72383D162DB1BB1896473DF3094CBDEB8CB83C2E182B3D7368963D9F8783BD6BD723BD733B5DBDF0B7BEBC764CD0BC1097213D636D6ABD3B96353D566E25BB1BB521BD6E911BBD0047E33A8B6E75BD267D993CFB9976BDCB1BCF3C03E394BDF64F7CBD2B42193D9BF6A4BDA03EA7BCC30992BDC8728ABD188415BDAAC2A8BD6BF4863D82E993BD801AB6BBAB2859BB6BBDB7BBA20A98BD6E914C3DC0A9733DD84C07BD503C5C3D13AF27BD03B2773DC31F963DC0CB583C30C9BBBC7B9FF2BC8B9C48BC2B6096BB5B49933D9B0F8F3C3C1B973DEE2E6A3D67889ABD23434F3DDCE1A3BDA6C924BDC85D0DBD06432D3DD082DD3C3B51953C70A8A4BDD83D733DBAC487BD587B4F3D04C3A7BD7656753DA60141BDC364073D569BEEBA83B9433DDB0EC7BC6BF7C0BB6F37AABDAB1ED0BC46A5D7BCA05043BCABA3B5BCD8501D3D3B1DEDBCEF52A4BD409180BCE6D5C6BC0068053B7381A2BD1845A0BD863F783D4B188FBC68F09CBD9B5F6E3D4CEA98BD1B0CCD3CE898313D6456873DB3576BBD1EA0173DEB1A1F3D408AC2BB300C973D36BD07BC26E7AA3C4051343C2B26F73BFEF334BD6BAB183DD8DA93BDFAEF9FBDC6F4A8BCA3216C3D0BA5DA3C3895563D68124EBD146594BD2B8DC8BBC0C1763C3071A63D7F60A5BD36E680BD2B1DBABBD030483D161F253D93F72E3DB67970BD96E2E83C78798ABD6E2D47BDC611903DBADA90BD2B0A9E3CAB7BC6BB9BDBE4BCA8AC64BD5639BEBC23237CBD609C5B3CC0E8B7BB78CC9C3DB6EFAABC3894713D5B0B7F3DA818283D3E4808BDCBDB0FBD4AE5873D7A05843D83A7963D932DA2BD8B0DACBCF70DA6BD5E29093D48DB95BD166B623D84229CBD0B0635BDFEE08CBDA6A8903C006A17BB9364833D700D9A3CDE32063DC60907BD2E3795BDE3789BBDDE2F09BD36AA2C3C8EBC0FBD38837A3DA7BAA4BD60534F3D4015343D20B7C9BCB8895C3D6EFFA23D96A707BDC6EF8E3CDB70343D371685BDE32539BD8A7086BDC018DABB6E945EBDA0CDA5BD6ED1123D108C4B3D58BD753DF8A16A3D26A5893D3B02C2BCCBE7593CD8644DBDA0FF0EBC568D3A39306E1F3D86D1B9BC70720BBD368801BD508A273D6FB9A93DEA70A53D9612A6BDEB2494BD003050BB40F8EE3B144294BD421D8FBDD6DE93BB7F27873D7B208ABD008B7DBC1069C53C16CEC8BCD684C5BB466A4ABD0C81843D3863073DBB9ED1BCE37C013DABD325BD8B8FB6BC806A823DE4E29FBDABB4BBBB10AD973CDA33AA3DABCAAABB2B1F133CCF5D8BBD60902FBC483253BD325DA3BDB0F3A5BC4B986EBC267914BD73D7923D8095D7BCC05C2CBC67A4A83DCE572CBDD635843D83DB3ABD20DE4FBC9806A4BDAB6CA3BB3628D9BCC04F47BCE26B9C3D9610D6BC8FB89DBDAB7AF5BC6BB6A63C80892E3DB83117BDB6BBEDBC90C732BD56B318BA1B09673DF6AE9BBCE0A364BD3697063CA31D343DDBFDBEBC2E1622BD6681303DEBC6AABB2408AABD2352723D46859A3D5E5E053D6E6319BD56B3F1BB96BDCB3C2667983D4B0E923CD4BD813D00DA93BBB6A708BD86FEE63C33BAA63DE8B519BDB72AA6BDC08CA03D634419BDC080973C80477ABC3B7C023D960A6A3DCCF39A3D4823203D906B5EBD4028273DF6AC80BC90D8923C047A9D3DA0E1123D06F78D3DA64EAFBC1BC7823C16A543BC9E9B5EBD96AB6F3D1039A9BC90A0F1BC361326BC040D9A3D4B7A743C36B4E33C8239823DEABF8D3D932D6ABDEB16983BB825843D8E47893D06D090BD06E5903D94A1883DE612FA3C7B78663D56928EBDD07BD53C0B21833D9EBB32BDF6E8C8BC2B689EBD2E296D3D9253843DB6E2C73C0646F13C5EC908BD7E5F9D3D586A63BD4BCA4ABC38EC54BD766AB0BCC0EC993D63DF71BD56B7963B1B67163D00B0C9BA0E3C223D009A6A3C10A2A93DC2C1933DA0DB66BD0B556BBC4EF39F3D001F9D3D36533FBC609E50BD53D18D3D9CC99FBDA8F81E3DAFCF8B3D1CAD873D5BA93B3DE848143DAB1490BD0E51A3BD066392BC43396A3D688E9D3D6BD54EBC004D503D20EC02BCF8E1623D361843BC6BEB3B3DF67AA03D2086333D1648903B9658DA3CF06DD43CFEB2753D96DC813C13E0483D737B333D864B3B3D98A2963D940283BD1057C2BCB638833D6BEFB6BBB6A2BEBCABA8AEBB3689C23CF6715D3C1BC0093DC03B083CA810613DE3EE023DFBE2E2BC3CEB833D2C82A13D58767EBDF89D44BDF6C70B3C00018E3B33F8333DA0B297BC0B005D3C50A830BDDEA747BD3B73A43DC0385B3DA39765BDB30462BD785B083DC6ED5CBDF8743ABD68FA0D3D9382273D16E7B33B960DA4BD20557C3DB843353D465FA23C609CA93D66B3363D56A59EBD4B57FF3CD0CEA8BCD7EE833D6BB6E7BB3E90563D303D7CBDA6E2933C3688113DE718A7BD932144BD522FA63DD4A5943D203D963C806875BD5A8398BDA69180BC6B83F73B68D844BDEF2E85BD0BF08E3CCBBB5EBD2459A5BD87C299BD38EB5FBD3C2887BD1EFE4FBD2EBE823D4B4D063CA66A0CBD5E0F2C3D8322A6BDB3DD543D564AF0BBFB222E3DDF4FA93D8F579ABD83F49FBD1E55123DF6DDE13C36CCCA3C6B1DD43C6F10A83D00D9CDBBE8697BBD60E3B2BC80550A3CB2E5A4BDCB3AE9BC48670A3DDE4F6ABD0BF7633DC0C957BC8600A6BDD6705A3B727C973D0C9A983D93A923BDEBEA833C68C513BDCBF17F3C9E204CBD7BAF3F3D7CFA8C3D4BD5353D9068923CC81A5ABD00570EBD06AD33BD7E07683DE061A6BD56E7273C00BE74BD5B2FB5BCD8CE783D96E2D2BC6A3B863DC8F585BD93CC83BDF06258BD569EC33C1664323C6BD004BCB0F07CBD96CA523CA07F1D3DCE375F3DF6578C3C33122CBD20B30CBD5010E43C8E8386BD2BC1C03B3EB32CBD00E013BCF601843C56FF763B8F968B3DEBC17BBDF81161BD96C9DE3C8BC7CA3CE06E513C7B8A60BDD07FA3BCF6FA0DBC1333A2BD4B52EABC9B0C70BD2E97AABD9058F9BCBB5387BDABEB80BDF313403DEE45463D8B5BA8BD2BFE29BCEB2FF2BC96C059BCB0218CBC1B94A2BD1055B2BCD34C8D3D7816373D16A47CBCAB00B53A0032253A7B8A353D0A139BBD2B059EBB5781953D6E1F3DBD964D0A3C969D48BC0266A53DD3A6A2BD00E46FBA2B6B8FBC2307773D68B421BD0BCBA2BC234C873D640C8E3DAABA8C3DAB76EAB9AB06443BA6439BBC8BDFED3C16ACDCBCEE2D60BD9E23AABD00C2F7BB507343BDEB1B90BD66D72A3D8662C63CF0C6693D8B178ABC2BE9CD3B962CA63CA8B07B3D5B54763DB8A25CBDC6D7AEBC721E85BD00751EBC364DFC3C36CE3ABC326B80BD3E2A71BD608854BC2B5ECA3CDEC1243DAB2E533A10538E3CABAE4A3BDBE118BDE648A0BD4600493D1022FCBCF05C49BD6617A63D849695BD3BF7F4BCABF93DBDD784AA3D3B72503D1BD923BD3AB280BD00BADBBBB2A7A6BD00C87ABAD7F98E3D00E669BB481F753D6837493DD8015ABDF7B992BDCE1973BD40F6553D0E1F09BD63DB103D47319B3D26C7CE3C8E9A9CBDC0FAA6BB9070A93C33C6573DA71F96BD7BC38D3D080A4E3DE37E483D2B03E23CF6740C3C800023BC9B1D8C3C500E76BDFB977B3D030D42BD160A823CC604BB3CEACC9D3D8B88793C536092BD0A88A4BD03D7A3BD53740D3D5B0C233D70969A3DA73E8D3D600F9ABC630B04BD20F0533C46558CBC1608EE3C78A526BD3FC49FBDDF95A43D8086753BCE7D253DCE5A683DE37E0FBD5B87AABD6BD32ABC80A0EC3B9F8895BDC0853DBDF0EF2ABD6B989B3BCB6C2CBD6BA0D03B1F15A2BD6719A7BD06F666BD605515BC4076853CAB6E15BCE61D0B3D26EF9A3D9E184F3D0CB9A63D7BE50F3DF35544BDF6D414BC802AFC3BEB785EBC00F530BCF681F23CA6C596BDA0A4F13C8FE2933D2BD02BBD4E6E343D349EA23DEB00CEBB1B34593DA3A053BD6B46493C56CB753BB0123E3DAF969F3D8854603D98B1013D870B92BD8B8F8DBC426794BD80E738BB9B468FBD4015FEBC1E665BBDABF0E23A03C451BD760E0DBD6B9608BDD60AFEBBC6E8DCBCE0B7B9BC2BDF763D8603C83CF685023D9671533D40C3B73C8B7879BCAB90503DA89F723DABF7503D2B03DF3CA0D7E33C66E2C6BC568B043BE08F73BDD0AB313DDBA1973D56C6BE3CAB4B0B3D764C49BCAB88873C6B05383C6B0DFD3B8069EABB46333ABDE0587EBCF6EC4CBD5B76FCBC43A174BD00657C3D83C350BD9038AA3CA36065BD56D5053C83083ABD1FB38DBDDC1FA33D13DB093DC6F99A3D969D9EBDC83D743D10D9A13C8F3B903DCB748ABC382D43BDC0D53F3C1B14A93CDB3F10BD00D6CABAABEEEE3BBF3588BDB88C653D63D25CBDC008DCBBCBF8AFBC867C2C3D5639E6BA6030C73C9B8AB03C16A5113D13F06C3D036B94BDCB0F523D565353BA4B0C7A3CC6DC9D3CB31405BDC059713D360D5E3DF3B37D3D436F863DF660173DF8C08A3D1B6D76BD56B1143DEE3404BDAB5D7ABDD698C73C0F8789BD8BAF9A3CF67B593C9035B8BC52A9A7BDBFAB9D3D332A173D436F7B3DD3D36CBD58AE0BBD337E48BD746DA43D805B043D4E65393DF02A7DBD4BDC6EBCEBF36E3DF38E4F3DDB777BBDAB3885BC08A4673DE6F0483DEB5A933CFBBE42BDABB86C3DEB020A3C4B5C263C966F463D7B0D9D3D54C8A2BD7BE34F3DE0BA4CBC36E57E3DD63814BBB7ED93BDEE0096BDABA6C53A9EB38ABD8B37353DD62646BD16694F3C67F88FBD808A763C005D91BA828EA4BD9E2DA6BD6F2198BD8604AC3C76FF013DDBEC173DE6A172BDB6E99EBC264CC43C40AE4F3D38257E3D2AFF81BDFB3B163DE077D03C40F2D2BB4094703CC07CB8BBCAC08F3D56875D3B1036F63C805875BCA442A83DDBB8F33C4EC1823DD6D858BDDB2F67BDF655183C0B26CD3C8A9FA43D4632A03DFBE556BDD61DA3BC2B99A2BDEB9BC4BC479A8BBD3660813DD45D89BDFE147A3D40FD933BEE8047BD48CF74BDB6F56DBD3603373D70568EBDB6EA80BD7EC16E3D8A6B883D909AE3BC10AFC13CD42F88BD7760903DF3167ABD4B42DDBCBA2E8BBDA61DCDBC1079FB3C73F23E3D7015EA3C8B16573DB09B9CBC00811ABBD6DAC13BDB2BA7BC9FB393BDA0647A3C3B52223D56CF5B3A6BEB57BDAB2406BAB6D3B23CAB55253B46FA313DC2F3853D8871993D3B9D7FBD8B6B0B3DCABC8EBD6ED358BD065DCEBC6E781F3D2B2F6F3C3627943CB69AA0BC26AC81BD1A709E3DD88137BD2BA0A1BBD66BD73C7320403D5025383D561DE23AE6ECB43C8858013D8A638ABD8651603D431C74BD00A63E3D4310923D970FA0BD00B5FE3C163E183DC87D403D405E3D3DA0D34C3C96A587BB6B5ECDBC1BEE8ABD165B313DC0AE90BCB8AF0CBD567241BB4080A4BBFEB0283D56CD26BCE6728E3DA615493D4077CC3B082D473DB33522BD0855653D56C862BB483191BD807D8EBCD64E1DBB96C9263C2B9991BCB61D2DBDC075883D1010B1BCEB4BBA3C274A8BBD5B09133D96D344BCCB86603D38CE6F3DABD356BD5B02663D365F79BDAB1060BBEEA506BD2374753D863FE3BCBA899ABDEB0CCFBC4BF0813D4C9FA1BDA31118BD36B44CBC3781813D000D6C3B1684E23C9371383DD6605FBB18B868BD70F43ABDD3A4A33D37F880BDE0A0BD3C33C396BD188937BD8CDDA93D8BA6AABD9B6D6CBD60578C3C9605A13B0E0D8FBD765836BC331B66BDD005923C909A9BBD6BE59A3BCB2A7CBC9B88A5BCBAB9843D848B94BD36CC07BC5ED209BDCB6395BC8A6E8D3DE31F74BD1BDDDC3CCCACA73DF091933D42949C3D607F4E3CC62BDFBCB3D044BD6608A3BD30E9DABCA09CDC3C80E9DF3BC092BF3C20BFCF3CEB86BEBB70CFE4BC93FE64BD6BD0863DABF5A3BB004C11BA008DBFBAEEDBA13D9338473DA23B9B3D2B9D5F3D60B1A43D80230EBD5697F9BBB68202BD53696F3DD8DF843D10E9D4BC10BEB33C4600CBBCF3CD47BD10B6DE3C2BBD13BC46E9C5BCD6E73F3DFE59913D00C0F6375784823D7BBF7F3D2079A83CEEBA133DC657AABCCE681EBD0B6D4DBD70C3CC3C00EB32BD403E35BDB63C293C58D064BDB08A30BDFB2A823D4B2C0ABDCB7B7A3C00FE113DBEFE0C3DD06C133DEE1F75BDD60B3FBC5BEC47BD46625BBDD0F1783D2F5F9ABDEA0693BD700EDCBCF872083DAB8024BAB004D93CFA459F3DFBC08CBD3B1107BDC09423BC3B1163BDE4F285BD9EEA3CBD480C66BD2330553DA60AAA3D282A90BD5822A93D50BEECBC14D196BD921485BDE3D285BD562F443A5C9EA3BD8B8D61BDC3AE94BDD879953D502E9CBC96527EBD37F4A53D546E913D80561A3CF67087BD1AF4973D26BB91BD7B2C4D3DCBB9693DEBD7C5BBAB8BF83B26A793BC063E3FBD1629953B5E75903DBAEF8DBD561D37BC733A2D3D6B2AD03CA010A13DD687A3BB7045EFBC767D603D56ED663AC68346BDC3CB5F3D20B7093DA823803D165C183DD888563D560CFDBB9E0C75BDE30484BD3BB2C2BC404439BDD62724BDABB5D23C7AF0983D669D5EBD98B01F3DF60A80BCCAAC84BD6B1E683D7BDA9B3D02D9A5BDB669743D0BDA81BCCEB56BBD0043DC3C7BA2D3BC8074063CA3DC383D00E6C93A4064DA3B848B993D18A7583D207263BDA03C7DBC00E3293CBBBD8C3D6BB889BC33B220BD13B0843DE4B984BD7040BEBC68983BBDB3AE963DC0DE533CEEED66BD4ED8A63D2E0D0FBD36B5F73CB3056E3D6BC2EF3BB67A83BC46F935BD8E01333D064F6E3D46AFBF3C3696ED3CF8C1073D98AAA5BD264ED1BC062A0D3D2650D33CB610D4BCF34D74BD104123BD2CF880BD108D483D003CC2B9B067CB3C0CE784BDCC6EA0BD00FA583AA2C8903DF8B33E3DD62FA6BDFE86773D50C38BBD139339BD6B7C82BB0F24903D066D26BDD62D723D0BDCBDBC6B4F583D03B26CBDFB306E3DA086E1BC068EDFBCF65A3D3DAB8C953A1B6AB0BC2B27753C88AA98BD5BE5AE3C5E10A03D466C8E3CA6380BBD3015B2BC16FB463CE6AD35BD40B1C7BB4BAB96BC3BEC37BD18BE283D630B9BBD3644743C661086BD96A9E83C38FA79BD00F3603CD05C753D1222943D709487BCAFFB8C3D4054A4BC4B9F1DBD0682ECBC760A963DE02DA2BDD6E9023C5B33F73CC03E6A3C47A19BBD0050B7BA966E67BD7BF5D5BC4015A33C1B6D1CBDA0599B3CE680663D0B6A87BD9C948E3D7B3763BD232EA7BD1631F3BCEB70513C70F522BD6B689F3BAB9AB53C70DD803DB6C2BB3C76C44DBC9B09993DD084C7BCA8F503BDB641ADBCA028603D56E3223B83CD9B3D4007393D18DB38BD42AE9BBDA68B333D26C01CBD1B42A5BC531C28BD76574CBD003E8CBB8E54803DA63806BD087586BD90DF83BDF355313D3E6A2FBD4AD5A03D9691DABCC0A084BBB8F17CBD76D0BCBCEBC125BC6ED132BD802C993C2EEA863DACB188BDCB9283BC76CD883D602A4F3DF8A1403D232B38BD780C1CBD764C033C009976BB8E93063DC05A74BCD6E587BBAB1EE5BBEEF2753D1852063DB069D1BC6ECF7BBD367871BC3E537C3D83B903BDAB26E53BD6E8A23BF00619BD3B94133DA0D4E93CD6CD0E3C8037F9BC8026213D2E96813D705A5DBD9698F13BA3DB0DBDB03E35BD2462A03D5653493B70DB17BD4B14D43CB33087BD00DA213A9353503DC6BC823D635E733DB6EC5C3D5092833C86E9623D84E291BD4B2031BCE0F9C9BC961CF5BB4EAD0ABDBB8ED03CBBB881BD83C137BD06CCA43D8262A3BD2BA269BD13C447BDAB884F3AB60B80BC2B829C3BB833103D0E4242BDC0A93E3C53B16F3D73E57ABDAA8D9ABD56BB9ABAA38E0E3D7B2E99BCB617673CD625E23C00F1813CEB03A43D037092BDFBAA6DBDBECD2E3D9225A7BD222098BD7BE6A5BDF0A548BD36B153BC034A71BD20439E3D4EEB5E3DEE73943D20766BBC90721F3D5085973C6BE08D3DAB2695BB1B45A73D1BA3DF3C763A3B3CF6D960BD965EA9BB90C420BD93C8193DAE864E3D16DC223D878EA93D74CC9E3DAED45FBD36D624BC008A90BC28C893BD7FB788BDCB58F2BCA016563C36E2A2BCA7469FBDD0BE04BDD3A4A93D4E2D663D16E4F0BBF6DFE1BCEB137D3DC0DDF1BC06C9F1BC43F8A83D8B389C3C60A62ABCB66F30BC1EC88C3D764B04BD83973B3D80B79BBCA26792BD803C73BB50BFD7BCEEEC8BBD2F29A7BD381136BDF37691BD9332453D1ED950BDF64F01BC3279A6BDAF3798BDE81C65BDCB7750BD06EF623D82F09FBDC01795BB28CC8CBD137A3F3DE8D0A23DBF5384BD6B89C3BC34D889BD3093B6BCD0F6BDBC06508BBC7BDC403DCB0201BC009DEB3B5613473BE00A61BC5B42B9BC7B5FE1BCB8A8623DFE52953D03CB1DBD58562F3DB2F3A4BD165B77BC037A713D78AF063DDBCFB33CF6CEB1BCBE4820BD2B10BFBB5682D13CC85902BD8653413D16FEA13D967617BDC02B07BDB6DA91BCB813253D6086E63CEAE6A1BD8692B23C2BD2343BD6E49F3CEBFA9ABD2B66BFBBFC269ABD40EFDE3CF8A8043DA0C706BC83D67BBDEA82803DBB5F9ABC70AE323DEA75853D00C0B0B717038C3DD23385BD33A9663D2EFE71BD209BE53CD64256BD80EE78BBEB6991BC5284A33D5671B1395E38A43D48B453BD6044733DE3B56CBDC023A6BCC616A63D5B3F0DBDB67246BD56F2A03D8E3F64BDE09B97BDD07286BC4CACA83D8EE8373DE6FB953C6600F83CB682643CB6A1643C9614B13BDBD8A53C868D8ABCFBAADBBC00302ABA7809123DF84776BDD63E4DBBD89E4DBD204F45BC9CDFA9BD5BE937BD48A3683D78D941BDDEE388BDC6FBA7BC560126BBB6B26FBDEB91FBBCDB81F7BC9636A73D7B6136BD5657EBBC36228BBDBB4086BCA2E79C3D5EF119BDAAED8F3D966381BBFE7760BD46CB813C36E15D3D6052893DE01746BC20140CBCA6337E3D10BD173D48679CBD98384FBD3631923C28936CBD36BCF53C187756BD5BA8A2BD2662503DABEEDEB9C0DA753D1687CE3CAE36343DC497A03DE6E515BDA05713BC9638193DE72AAABDAB16863C2B30DBBB167CDABB30B38E3D76D5EDBC8B357FBC56ACAFBCD680553BA8A346BD4E8D0C3DF3CF993D6B06653C83B3103DC3E57EBD536A76BD76B048BD9046B23C004BDDBCC6137E3DD82F3D3D8E659E3D703B113D102DF5BCA66726BD2B25D3BCAB863EBCFBD80B3D4BD5243DA82A1D3D102925BDF3E948BDB626B4BC90A7273D00CBECBB803BAA3D06E3A0BD0BCE7A3C8BA448BC1ADB803D1EB570BDE8B88A3D56FEB13B306224BD1EC249BD031C82BD4ED5643DF69C053D56E549BB863BC93CB03B873CA408A2BD5B84A63D66E2CA3CF0204A3D8BE11EBCE0AB4DBDD00C663D6CD6893DEA4699BD761FE1BCB0AD033DEBBA62BD265BE33C5EE30DBDF021CEBC5650AD3C774B86BD567F063D20CAA8BC98815A3DA0ADC7BC63ED1A3D009BC53BDA8AA6BDB0902DBD6BC3FF3BC72898BDE8C5A7BD7B2B90BC7BCACABC2AB4813D34A18DBDB6EF4A3C50297DBD68CF133DCBA5543D8656D53C0058C1BADF3191BDAB0804BA5BF6AF3CE039D63CFF3197BD04A7A73D60FCEA3CF0FD11BD9B54843C4BBA97BCA2499BBD5E78003DB86C99BD565F6C3CFB7B1F3D58B56FBD56C902BDEA5380BD7F0298BD16569A3DB0EFDBBC8E28A13D38E83DBDF6139FBDFC4C87BD96C3623CFB17693DBB7961BDF05428BD18E248BD366F463CFB09F0BC009033B920C6883C4790AA3D180D87BD96EDBE3B6E42473D4BFC8EBC006DA9BD4BAE143D0B316E3CDCFE9E3D2018DC3CD6E738BB7050573D967F0C3C80EE993CE8A28FBDC04ABBBC335833BD8E483CBD8031903CB48E803D06B2A93D76D61ABDB3D47CBD14C0A7BDB0564B3D2EBF3C3DE85C5FBDCBB1DA3C1043DB3C0041403CA0894FBC0B2C5C3CA36293BD50EF703D80963EBBD814273DD87F9EBD6E27853D329AA93D70237D3DE0CBA73DFB765FBD36EBE73CDEC213BDB60963BC3B6F56BDCBCD50BCEFC389BD1EEC853D900B9E3DF03EF8BC7E067D3D8BEC5F3D9CE48ABD503F923D9064833DC6118CBC0087E03CC009D6BB97B291BDD8516BBD30E7C3BC4B119E3C3EA2A9BD86BE63BD788B9BBDBBE89C3D30A5FF3CA0BD91BC2615CD3C2ED550BD589C82BD132355BD5750A4BD5673C3BAAB07883DB678CD3CCA62993D30CAD53C96F391BB46F68FBC683549BD4CCEA8BD7B1FC53C63922DBD9BDAAEBC168CC2BBDB6BEE3C33AE043D863EC43CEE0C12BD16D1F53B4BFC67BCF71C89BDD65F463B06EBF7BCCBD1833CAE448D3D6304AA3D2F798ABD7013393D9C7F96BDBB9B7F3DABD100BCB801613D0E1D2B3D0B83043CABC8FE3AE0AB513CA63E5FBDD8339E3D6475923D6B400A3C937162BD6BBF2EBCD6BB713DBBBC4F3D837891BD83FE833DBFACA5BDDE2F353D066BCE3C8B63313D582A8BBDE3120EBD808C653B00A0FD38966A673C006097B8FBAC45BD070780BDDE6E98BDA3364ABD00EC69BB2BCA5C3C30500FBD56F259BD"> : tensor<16x16x3x3xf32>
    %false = arith.constant false
    %cst_3 = arith.constant 0.000000e+00 : f32
    %cst_4 = arith.constant 1.000000e-05 : f64
    %c0 = arith.constant 0 : index
    %c1 = arith.constant 1 : index
    %padded = tensor.pad %arg0 low[0, 0, 1, 1] high[0, 0, 1, 1] {
    ^bb0(%arg1: index, %arg2: index, %arg3: index, %arg4: index):
      tensor.yield %cst_3 : f32
    } : tensor<1x16x56x56xf32> to tensor<1x16x58x58xf32>
    %0 = tensor.empty() : tensor<1x16x56x56xf32>
    %1 = linalg.fill ins(%cst_3 : f32) outs(%0 : tensor<1x16x56x56xf32>) -> tensor<1x16x56x56xf32>
    %2 = linalg.conv_2d_nchw_fchw {dilations = dense<1> : vector<2xi64>, strides = dense<1> : vector<2xi64>} ins(%padded, %cst_2 : tensor<1x16x58x58xf32>, tensor<16x16x3x3xf32>) outs(%1 : tensor<1x16x56x56xf32>) -> tensor<1x16x56x56xf32>
    %3 = arith.cmpi eq, %false, %false : i1
    cf.assert %3, "training is not supported for now"
    %4 = linalg.generic {indexing_maps = [#map, #map1, #map1, #map1, #map1, #map], iterator_types = ["parallel", "parallel", "parallel", "parallel"]} ins(%2, %cst_1, %cst_0, %cst_0, %cst_1 : tensor<1x16x56x56xf32>, tensor<16xf32>, tensor<16xf32>, tensor<16xf32>, tensor<16xf32>) outs(%2 : tensor<1x16x56x56xf32>) {
    ^bb0(%in: f32, %in_6: f32, %in_7: f32, %in_8: f32, %in_9: f32, %out: f32):
      %10 = arith.truncf %cst_4 : f64 to f32
      %11 = arith.addf %in_9, %10 : f32
      %12 = math.rsqrt %11 : f32
      %13 = arith.subf %in, %in_8 : f32
      %14 = arith.mulf %13, %12 : f32
      %15 = arith.mulf %14, %in_6 : f32
      %16 = arith.addf %15, %in_7 : f32
      linalg.yield %16 : f32
    } -> tensor<1x16x56x56xf32>
    %5 = linalg.generic {indexing_maps = [#map2, #map], iterator_types = ["parallel", "parallel", "parallel", "parallel"]} ins(%4 : tensor<1x16x56x56xf32>) outs(%0 : tensor<1x16x56x56xf32>) {
    ^bb0(%in: f32, %out: f32):
      %10 = arith.cmpf ugt, %in, %cst_3 : f32
      %11 = arith.select %10, %in, %cst_3 : f32
      linalg.yield %11 : f32
    } -> tensor<1x16x56x56xf32>
    %padded_5 = tensor.pad %5 low[0, 0, 1, 1] high[0, 0, 1, 1] {
    ^bb0(%arg1: index, %arg2: index, %arg3: index, %arg4: index):
      tensor.yield %cst_3 : f32
    } : tensor<1x16x56x56xf32> to tensor<1x16x58x58xf32>
    %6 = linalg.conv_2d_nchw_fchw {dilations = dense<1> : vector<2xi64>, strides = dense<1> : vector<2xi64>} ins(%padded_5, %cst : tensor<1x16x58x58xf32>, tensor<16x16x3x3xf32>) outs(%1 : tensor<1x16x56x56xf32>) -> tensor<1x16x56x56xf32>
    cf.assert %3, "training is not supported for now"
    %7 = linalg.generic {indexing_maps = [#map, #map1, #map1, #map1, #map1, #map], iterator_types = ["parallel", "parallel", "parallel", "parallel"]} ins(%6, %cst_1, %cst_0, %cst_0, %cst_1 : tensor<1x16x56x56xf32>, tensor<16xf32>, tensor<16xf32>, tensor<16xf32>, tensor<16xf32>) outs(%6 : tensor<1x16x56x56xf32>) {
    ^bb0(%in: f32, %in_6: f32, %in_7: f32, %in_8: f32, %in_9: f32, %out: f32):
      %10 = arith.truncf %cst_4 : f64 to f32
      %11 = arith.addf %in_9, %10 : f32
      %12 = math.rsqrt %11 : f32
      %13 = arith.subf %in, %in_8 : f32
      %14 = arith.mulf %13, %12 : f32
      %15 = arith.mulf %14, %in_6 : f32
      %16 = arith.addf %15, %in_7 : f32
      linalg.yield %16 : f32
    } -> tensor<1x16x56x56xf32>
    %8 = linalg.generic {indexing_maps = [#map2, #map2, #map], iterator_types = ["parallel", "parallel", "parallel", "parallel"]} ins(%7, %arg0 : tensor<1x16x56x56xf32>, tensor<1x16x56x56xf32>) outs(%0 : tensor<1x16x56x56xf32>) {
    ^bb0(%in: f32, %in_6: f32, %out: f32):
      %10 = arith.addf %in, %in_6 : f32
      linalg.yield %10 : f32
    } -> tensor<1x16x56x56xf32>
    %9 = linalg.generic {indexing_maps = [#map2, #map], iterator_types = ["parallel", "parallel", "parallel", "parallel"]} ins(%8 : tensor<1x16x56x56xf32>) outs(%0 : tensor<1x16x56x56xf32>) {
    ^bb0(%in: f32, %out: f32):
      %10 = arith.cmpf ugt, %in, %cst_3 : f32
      %11 = arith.select %10, %in, %cst_3 : f32
      linalg.yield %11 : f32
    } -> tensor<1x16x56x56xf32>
    return %9 : tensor<1x16x56x56xf32>
  }
}

