#map = affine_map<(d0, d1, d2, d3) -> (d0, d1, d2, d3)>
#map1 = affine_map<(d0, d1, d2, d3) -> (d1)>
#map2 = affine_map<(d0, d1, d2, d3) -> (0, d1, d2, d3)>
module attributes {torch.debug_module_name = "ResidualBlock"} {
  ml_program.global private mutable @global_seed(dense<0> : tensor<i64>) : tensor<i64>
  func.func @forward(%arg0: tensor<1x16x56x56xf32>) -> tensor<1x16x56x56xf32> {
    %cst = arith.constant dense<"0x5BE7253D0003853C6B89763CE8DE48BDA04DCE3C4B86CDBCB3CA4BBDFED21F3D40FAE83C13C393BD08CD1BBD4888733DD601643BD082993C565AFA3CD816453D400024BCE65D803C6BCEC6BC230D843D8F7F82BDA0B651BDA00FCB3C8014B6BC5797AABD76E8653DE33358BDB3558E3D4E8E4B3DFE432BBD9EB42C3D6BB7013C003084B93655223DB65C243DF88242BDFF76A53D46EE4ABDA22E84BD30400ABD162624BDA33D3ABD98895F3D86169EBC0B1DAABC80686A3B4372743D4B0311BDABBB9C3C66FDD5BC1688C9BCD07912BDC0F47A3DB6CA2CBC2F18A03D2C6E933DB66DBABC5FFAA5BD3B2B8EBC47EC84BD2EEE43BD00E2583B50FEC5BC40B66BBC3EE6493D733129BDE64D88BDA6D6393DEB6F213D160265BCC63C173D58F81DBDA0C7413C4BF8EE3CAB3E44BDBE451ABD20A233BD562546BD560B72BB4015FABCCECF0E3D36DBE43CD869003D084F37BDC6650FBDAB0887BD4673EC3C8C61A9BD2EF48ABDEB0DF7BCF3380C3DD612393B1C2688BD2B4F4ABDE6F8F23C3BC91EBDA67FE0BCD318283D2B3678BD6F6B8ABD4BC370BCC624553D9B7794BDD6761EBDD82438BD33B59E3DDB489CBCCF0F9E3D1003E7BCB2838E3D966C253C9B9AB2BCCE13293D86CE273DE0F317BD80B966BDF34D78BD4346863D26C11D3D8B3202BC56D00A3B33EFA4BD88100EBD78FD9DBD56D4BCBAAB71A63DD6F9A73B4BE5973C203E9D3DF36D4DBDB020413DCEC9183D60C8F1BC90832ABDEBBD933C94EE843D0E9A21BD96917FBCE80C453D63048A3D969D0F3DBC2198BD9AD68C3D56AC9ABD1B8E343DDB8C5C3DC6CA6FBD1E5587BDC660933CB3F6A53D03BC643DB0D216BD032D07BD48642BBD434D27BD6E581C3DF631F13CF6F1173CF34978BDF3FB5D3DCB6455BDE65107BD407CD9BCA047A93C1AC0A93DE8CA163D7A0F903D8BC889BCEBF06E3D90ADD9BC767134BC2A72A0BDC077F13BD6DFCB3B52B68A3D6E6A513D73902CBD3653953D24F88F3DBEEF353D4B0BA9BD2B5D90BBBB2B33BD8BF28DBDD0D6C3BC0B330EBCCE9087BDF69A15BC5690B4BB6B35B33CABE1233DD39563BD23256E3D00A5BDBC80DDED3B66F1283DCB1FC6BCB089EFBC16214FBC30215B3D7742A5BDAB608B3AE77FA43D8A409D3D2BA4EF3C431574BD9335A5BD30815C3D28A4793DE6E6D6BC2E73863DBEA9183DDBE636BD0056E8BBFF479E3DC3843ABD087891BD2E0F623DBA8199BDD05677BD30CDC7BC4716A43D4011923D18BC2EBD4BB1ABBCE051333DEBEB4EBC96E9A0BB40E8703D56B2FABCD091A03DF04C6EBD3E548DBD467290BCE01719BD83605D3D089D363D98888F3D5B4CA23D769A27BCE7E29C3DC6B39E3C686381BDC6DE8D3CC09EFFBB585B91BDE63235BDE69911BDA0BF123DE6D4653D163B01BC4EB99CBD28C748BDC08E83BCDE86723D60F61F3D760428BC9010ACBC038C4B3DFBEBE2BCC0DECC3C862CBB3C3E8563BD30FB24BDA06B543C40068CBBB6C04B3DB046B6BC0E156FBDA066933C28A84CBD8BD69EBDFFDB91BDC460983DF457983DB6C304BDBEC708BDECDC953DB66C9D3D6F6F853DCE6768BD132D2BBD87EAA1BD10D4F6BC83B97BBDD6357C3B73CC35BD46A926BDD25F963DC3EA49BD9B7FBB3C93CE80BD6B78F2BC206C443D4B7738BC8B312A3C20BE1C3D6BC60FBC3034283D175CA83DD64B9A3B686A81BDBEB3193D23E6893DBB704A3DF017A0BD2059FCBC80224DBD8BF57EBC268917BD40934D3DA30A53BDAB5CD4BA609A5C3D374B823DD45697BD00B411BD13002ABDEB2A5D3D8E7D3D3DF87A983D7EEA443DB06697BC68C226BDEB89B23B327B95BDFB42303DA6FB51BDC35F30BDC061183D502F173D40D4483C5FCBA6BDFA33A2BD007C113B1CD1963D20E326BCAB07863B788A73BDFBCDEDBC3F6D983DE6F9AE3C9BFC1EBD6B6AC0BC10A082BD18D8993D26772C3D3ACC9E3D2B419BBB138259BDDAD8A23D580C3BBD189873BD945F923D84C688BD0B5D813D6674FD3CFB88873D4090EB3B98BC283D401160BD23724DBDF779A9BD4B14D8BC4E279E3D83CA5F3DEB533E3CBBFA803C5BDC76BD647A9F3D8B9B9C3D96EF1E3C70AA913C60AF8A3DEB944A3D56C19B39562E803CA8E96D3DBCD293BD601B1E3CC82D1D3D56C2253B88131CBDAB34D5BC009AAABD443CA53DF08D21BD5B7C92BC18E367BD0F888A3D7FD199BDC0CC643C8E775EBD3699483C58346EBD1B72603DAB8EB239008B11BD6BF55BBC4659B93CD68B1DBC009FCEBC787B633DC0FA323D567B59BC54B083BD8B56A8BCF695C8BC404E1A3C6E440FBD5BE7D6BC9B37D5BCAE488EBD8078023DC38BA7BD501F8EBD031D4B3D7E63473DC030FF3B0B612D3C2B4C24BB960F983D20F88C3D9BF7EFBCE4DBA4BDA81A29BD6698903D8016183C3E4F96BD76D53DBD46302D3D3BD52F3DD0AC533D2ED627BD5BD5633D601A683CC80114BDA6ACB6BCAB96C6BB363E013C9617633C00B26F3A5BFE3EBDC0FCA0BDB0A8DA3C33732ABD00934DBD7BF598BD981A303D5EB5973DCECB5EBDC8E91BBD12819F3D03267E3DC6FF29BD77F392BDFFBF9E3D4635B73CE01285BC7BD38C3DD608E53B7F5A87BD1B69AABCAEDC033D56DB7B3DBEBE783D9498923DAB42233B2B4DD7BCD6E68D3CE0196C3C2B734BBC7E8327BDA090E5BC1682723C0BB85BBCD8060ABD98552F3DFEFB833D9654A53DBEF0A3BD0B89FE3CAB59193BBE414FBD6FDF8CBD2A699B3D7B37A2BCA8FD5ABD6B52A63CF623CC3C2323243D0B42B2BCAB44BBBC002BBB3A33F87A3D8B37033D039557BDDBCEC43C401B18BD30799BBC50889E3D4003DABBE09B903CFB20A93C26189EBD76D9DCBCB6D0C2BCD696773DCE4A6C3D781D94BD53EE7DBD363C26BD92368F3D1E959CBD5688ECBB800BF1BC165C473DC08D08BDA3B05C3DD6E72E3BCB822F3D9B664E3D98AD8C3D845E953D4E7B673DEE34803DB647A9BDB07892BCB054523DFB8C623D7690F1BCC693BCBCC3150BBDBE170F3DFAF094BD2040973DEE4A763D93A47B3D36953FBDA69E16BD2B67AC3C00C60DBBAB0F763B003EE2BCA37C82BDBBCEE03CC3DF2FBD30A69FBCFF0E993D6B8B86BCC09EDFBCB080093D609EC13CE6EFF1BC7CEDA43DAB5417BBAB99D8BBA3BD80BD8B10953CB3F80DBDC000F4BB40597CBD9B98ACBC5061E5BC6B51C6BC18C8663D53C5993DCB7930BDF0F978BD73EF79BD1B313BBD80D98E3CD6E9A1BD64719E3DF38F3EBDC078EFBCAA3D87BD4BEF80BD964E133CA3CA5D3D3E17913DA0C064BD8B6C1CBCABC8113DDC219FBD1E7918BDE041D9BC5E0C6CBD16BD17BCBBDADF3C606030BDD62199BC5670373B76FE55BDD7C1983D987A833DAB0A903D36D2093CD8D1223D80A42F3B50CD98BD10EC8CBD93D6643D00353DBDBB54D43C368B71BD80A5073B960D7D3CA2A3A23D00F13ABB36643A3DD6A3D63C66B7A93CF45A953DD656183B4CA2983D36C0CD3CAB63693D6F30A83D803657BCEBDCF8BCC68EF0BC4628323D8322A93D681524BDEEAA753D0803113DF06C99BC27C4883DEE4C943DABCAF73A2B7895BB07FF833DAB11FDBBBB34BB3C0E1F083D5EA885BD2827893D28EF433DEEB43B3D36E0F6BC232627BD9030F83CE64187BD30BBAABC9EEB9ABD364A753D943089BD7E0D283D9BB3A3BC03542EBDF0EAA43C5E395ABD0C04903DD688A23D7BBA783D07098EBDC0E97B3DB77186BDFB5FF83C50797DBD5085CDBCF64A5F3C2BA34CBB105105BD36209ABDDB15ABBC20F1553D9FC79CBD50A451BD6B1FC5BB8B77DB3C33B74A3D56CF2B3DA70D93BDAB6CA3BBE3055C3D349D833DA6DE773DB6D662BC80B001BDB0FDAABCCB6CDB3CA6B1103D4BEB3FBC70F5273D56A548BABFE7973D73BB72BD80D063BD0016E53CDEC81CBD5C0CA73D009C89BDFB79C6BC1672633D980315BD427DA2BD76B39DBC76137DBD56CE16BDF057663D5611B2BB14E393BDDC7496BD36F77C3C277F92BD3EB2263D088C973DA3ED56BDDC6F943D1C8A883DCBFF80BC14FC963DF693753D1FC28BBD507F873CD605483DE6033EBDE04F9F3D562479BBEBB227BDEBEE83BC63C904BD3709993DF61127BDE00524BCF83B10BD4E2A5B3DF8E318BD0B8095BD64D489BD5EB2513D0068393936302E3D46B58FBCCE45A73DB02F053D105AFA3C0ABAA83D0B40653C38F167BD96F4513C58D2513DABB2F4390073E83BB8EE97BDABC62DBCCEDD493D304C393DAB9BD13AB8EF78BDF3D3813DAB4552BBC662E1BCF678F53C1695613CB68609BC00409DB7168479BD23FD8CBD6686643D8BC41DBD60547BBDB380483DC0F5F0BBFB64053D565598375B5CCEBCF605613D5B6DDEBC0046813B831706BD36EAF5BCD6A3D23C76DBC7BC1B6E2EBD76BA1E3DF09855BD401F313D68158FBDE6C689BCFB31FABCA60DBA3C003D92BD40402A3CA33B94BD409D143DDB050CBD289688BD1646BB3B2B45E5BC537A4E3DC09E283CABAEEC3CB84E6ABD9B9C94BCDB8F84BD30C0DE3CA33E383D6BF37D3DFB7B23BD006C9EBA74F195BD2B3AEB3B162DDB3C1857993DA81EAABDAE1A4D3D36C194BC20CA57BDA2F681BDEA2799BD80BC9BBB564AD3BB022BA93D48B43C3D783C7F3D6E17123DABD56D3C1B7BA73D9BA593BC8ED9633D366B613C6B4F6B3C10D443BD48BD073D66F351BD948D893D22568FBD40D9C33B5B1885BC00BA713CEE5D57BDA876373DD6D1F7BB56E7D3BC60C935BCA01C62BDB0E1F5BC53747CBD6BA0ADBC235456BD462640BD504714BDF271963DC8279C3D4BCAA0BCEF5CA7BDAB2E63BBDF4391BDC0AFF8BB0B9078BC734E65BD3E6981BD7F5B83BDD098FC3CF45584BD400B693C7869333D5019EA3C6B22EB3C16C8AF3CC65FC6BC6E6D25BD06F0A2BC13857C3D7B35003D20B6533C3BDE75BD1609D73CDB9F30BD38CC013DD8252A3D66F6A3BDFEBD8DBD8BFE6DBCABE034BCF0FCF93CAE464ABD36483FBD1F50883D3BE9C7BC362461BC972EA5BD0653C2BCF6BC30BC0B3FAE3CA0D57D3C389C8ABD96D412BC4B9C983C3B7A923DEEC6993D5029D73C43043FBD96D7C73B3B0A8B3DA0A3D8BC9EDA6ABD403C183D6B629DBCCE7E29BD6E4E02BDAB57663C6B0B0A3DA8462ABDDF4BA6BDD06A0DBDFA998B3D708F493DC30D44BD2B629DBB1B3C66BD1E09483D230A88BD6CF196BD86CB553D230E443DF8FC6B3D5E3C9D3D66DDD63C16000DBDE0346D3DB62C573CE3D242BDC3150E3D0026FF3CF04E4D3D565BF23CBB3E8ABD4B9E863CD6BA16BCEE8152BDD64FACBBA035653DA036803DEB3A88BD6612A53C679CA9BDA20FA43D138C85BDE79F8D3D6BD258BD563D53BD1E726A3D3666873DB0D751BD1BC9783D9054D1BCF675AC3CBB95FDBC007054BB9EAC57BDD85B913D10D6533DE4E8933DA0C80BBD7B01ABBC488A6D3D40B659BC1044293D003B2EBB6B7F983DC68A7FBDB64E04BC8095023D006F593DDE178DBDEE7D9EBD76A214BC00F3C63A2E9125BDD02C613D3310993D338748BD900362BD0067A33D80A9443DD62C9E3B60FBC53CD00254BD7668743C4B23D9BC036B63BD0B188FBD7F13993DD080953CCB4F9B3C8035A0BB566F35BADC04A0BD34048B3DDB51D3BCCB7FA73DEBD117BD30E3BFBC20B23EBCBBE7E0BCB6FB4C3D6BBAE93B568E96BBF0D1C1BCDB71E3BC706EC33CDC39A0BD1E8F33BDABD7C03B4BB09EBD3AEA9FBD5615C5B7302D45BDEB41C93C76F96D3D56955A38606D76BC4072C8BBA84A6E3D8033B4BB8B6FD2BCC35A3E3D0073F33A60C2DEBCA6AA3E3D6B47F8BCAB3E65BB388589BDEBD856BDB63A42BD3624863C7657273C162EB2BC2B0A683B6836073D36BF463C56A59B384E56083D63B206BD936874BDFB50023D6650023D1BC0843DAB10C03C56BEA33DDC0580BDAC6495BD9C55933D4066B8BB1636923D10E6A43DC0C783BD4007163D06B6DBBC3B6C7EBD83B0123D720298BDD03DEBBC2F4C9EBDA64C293D0BC2443D00B4BBBC4052EEBB003CFBB96BC6763D60B7653D562689BD4E16883D4C4E9CBD33C41BBD1794A0BD7057403D96D1023DBE894B3D8B9B4E3D564BB4BA16D240BCAEAE0EBD0088B3BAC6F2023D161F9E3DD6A1EBBC6659C0BC908CA63CBB120FBDDC43813DFB1A663D6C8A94BDC6C79DBDF642433DDB7F5D3D2B21B63BD6DA9FBB5894383D605F673C164235BCB09E853C562E22BD3E4685BD67C4A8BD9B4BE93C38C26C3DB73BA1BD4B1048BDBB04DA3C1BA20C3D303DEE3C600440BD80160A3C76AC4B3DDBD3F3BC7040BE3C00D06339782E703DDFC79D3DE027143C00DF2D3D807721BDEE48043DD0F3E0BCA0E4D1BCCB71BC3CB0368EBDDEDD653D2FCD8A3DBBA5823D0B7AF33C364C653D0B1122BD338C3FBD8070ADBB2BE97BBB7E8A293D73F57A3DC3F114BDEBEA2DBD4A5D983DEBD59DBCEB175ABCE601A23C589909BDAB3E82BC50A1F33CAEC5223D06F6A83D7E90123D68E9A6BDCA708B3D3BAE9BBD1680AC3CCBD77ABC3613593C93BF463DEB53923C1ED32D3DEBF6CF3C4B402FBC9EE25ABDE39E92BDAB045FBB06F38E3D768B97BC16142FBDD6E2A7BD6694EB3CABCAA8BB632B1E3DD6A2E93B5656BFBC3869613D6E85483DC3FF5D3D1B22B43CEADB8D3DA042333D1EF01E3D5B38433D561E69BC5696D83B0B95813C2E2025BD26AD98BDAB5B1B3DB6C6C43C6BCBBA3CD669B2BC5868683D1BA21FBD96BD1B3CD60343BB3BAAFEBCABB5F93AAE9A3A3D1B7B7F3DE62D95BDAB53A5BBAB25BE3BCB6163BD404FCD3B632D34BDDE58293D102B2DBDB0B7213D7A58A93D00E344BC561CCE3C60C07C3C00230FBCAB3C173D00DFA83B402794BBE6C596BC4EED0ABD44868D3DFB1F80BD336C9DBD3EB41C3D508AD03C0B76073D0024753A26000FBDABCE5CBC4EAE603D366F2E3D8622E83C363B4C3D0B79833DBB64273DF620223D009B0ABB0C789FBD00B98CBB5A819BBDC04AA4BDFA988E3D084962BD436E363D08A9A0BDE606E83CA62D743D9F8493BD7E7D7FBDCC6E823D00DDE13CBEDE6E3D36F488BD8717913DAB6BE93B4810763DF4FA82BD137C443D83AF4CBDAB84CA3BABCECC39EBE3EBBC4BF04F3C7BD9CEBC90E6833C6BB4BE3CE6DF4DBDBB58AC3CD697463C93F62D3DB7B0903DA6B4973D132A9DBD2C53873D10B7CCBCE0BF96BD7E4D20BD66EE59BD0B0E4E3C4332A33DEB9063BC9B90E2BC5017E1BC7E257ABDA458853DB0E3C43C0B2DF1BC731F6EBD9ABDA6BDFB56EF3C6CE38D3D20E44BBD68958B3D88B741BDD060AB3CE4EB843D8E4A97BD9BBABCBCB3F138BD4B67E53C3E351DBD4BFE88BDB61920BDE38297BD40421ABC386B1F3D8E01553DE7CE83BD4B55893D00B7893A6AA6823DC610CA3CD398973DE351673D563FA1BAA8339EBD5655863880AA60BCB634863D80B5DBBBAA8783BDA6F7AB3C8AADA5BD30AFEABC067E1F3D767A32BCB7D3A6BDC6F4A1BC60F37F3DEE5C103DCB4F43BDC4F5903DA0323D3C9E1775BDB6C5943CD078C3BC388821BDAE4F433D805F17BB2E2D95BDF650BD3C868CA63C285AA13D967A85BD133708BDB06BD33C20DFA63CB03E833CB0EFF5BCB6C971BDE2F594BD0089693D56D5EC3A2B7B67BB83BC3E3D43F107BD2B7F613B3669023D962FE3BBD6FA343C9E03A73D8484A2BD63083DBDCF18863DE2C19B3D6E8D0A3DD8CE673D4B5E66BD00FB6ABCB8FB1EBDE0D7073C565082BD6BF198BBCBB3803CE005383D0E3519BDD878263DBC4C81BD481068BDEBB04BBD9C29A0BD833B14BD009A8ABBF3203BBD5B58923D463D2ABDA04186BD96031C3C40E18E3C9B5889BCD8DB833D209FDBBC5654473BEB69DABB70AEC4BCD66EAA3B2E44633D5B908BBD46798FBC766F9CBCE3014D3D1EDC753D58A994BD208130BC6098BD3C1BEE67BDCBD61A3D7B0D91BC5B1509BDAB34243CB6838DBD56B1C53C2B0AB03BF33E5BBD5390923D2B898EBD1810673DB6BE05BC4C83A73D1B58493DF384893DBB9A563DE83C5EBD0B96DB3CAB19A0BDB3D773BDD020AABCA09A44BD3B25AABCE089EDBC56BC12BBFA4195BDD3FA513DD62C10BB6CDA823DEBC81DBD683C023D00E063B9975992BD06A2BC3C601D21BC702A9E3C93943FBDBBF39CBCB66567BC5B8F4C3DC05EA23DB02F773D8096243BF69A6F3D76F930BC3857203D8AE18B3DCBA80BBD6B8B4EBD065B4D3DCE1C71BD0BEE06BDF89F603D56D8D6BC5620FD3A184018BDBBBD14BD6B2BB83B00EF0E3B0B437CBC7BE7EABC139A06BD168309BC782C563D9E5B1C3D6B341C3D3E4E953D2BDE9C3D56C4E9BB86E4AC3CE696A03C7659643C7BB532BD13BB96BDC6B9273D86EBCB3C0668ED3C760D78BDB365A5BD973786BDD67A8CBB6B7F6BBCB68086BD96691F3DE8ED95BD58D16B3D0EC078BDAB991CBB9BB5AA3C7EAB02BD4626173DAEEE54BD96EFFABB50EF72BD26E393BD00AB9E3DE3101B3D66BC3FBD2ED1273D30547DBDFBD6C03C3B384F3DA80456BDC65FE8BCD4A6A53D0BB5273CC01D5C3CFEEE043D065A5ABD3608E8BCC06C983B7B0B043D8B678C3C54668C3D1386283D805C3F3D702B9DBDBABE9EBDB09B363DB06BC1BC78B40D3DC38A0F3D1C3583BDE30249BDAB990D3BE3AF3F3D609EAABD68608DBDBB8C50BDA43997BD5ECE5D3D8BD5A23D5671723B680B623DD64AAE3C0047A0BD53E58C3DC0BEAB3C70F19B3DBBB5A9BDB3082E3DD6883A3CB6618CBDA69246BDC606FEBCBB185DBD00B7053B60FC21BC161CB3BBF87F133D50212F3D808FE2BB00EE54BAEB2D7F3D56F8FC3AD484903DEB7EAA3CDB76EABC40661A3D680E63BDE0BF523D50BB363D307311BD563BEC3B182B9D3DA83C703DF22AA7BD64C289BD60210BBD16259DBB660F053D5646493D90B5A1BDCB96EDBCE0101C3D0E947D3DD0CD9B3D1ED98D3D9B8A25BDBFF28ABDAB332DBC18B785BD3399843DCAD9953DF6DBE63C4AA3943D90A210BD007460BAB0F4973D0B787CBD1EBDA2BDEBB63A3D6E8109BD1B53EE3C2C7FAABD88A5543D96B31F3D84FF923DF39151BD00C835398B2276BD5B6287BDCB52AABCE6A2383D20C5533C5898473D365CE43C4EFF0C3D36CEA9BC56A4C73C6B3171BCE6B6BFBC5C9594BD0E46883DF65AC1BCC019E63BD602A03D83B350BDDB182DBD509C9CBCE8C72C3D20F54CBC0015FA3B2BA9333BF657B4BC870285BD03AA943DA011133D3F0BA3BD530D5ABD304B23BD0C9C8A3D03D172BDA034C1BCF3FD8E3D28A2963DFB88E8BCA07058BD06AA8F3D167E9DBB5413973DBB6DB7BC134033BD96480CBCAAEAA9BD2B3A79BB80D388BBF7189CBD200B5F3CA3E101BDDC639EBD5618C2BB66BAFDBC20C5963D103473BD7E9E1F3D8B3A933CF6082C3DD64F50BB7BEFC4BC56C8153D3B5689BD8377A1BDC666FD3C5EDD18BD9628313DD3348DBD6B5FA13CEC25913D74A8A6BD80819E3DA66387BCCC2AAABD8BE83ABC68A83A3D6B58C6BBA06F57BC5BCB5D3D236D47BD1658173DB2C99B3D0372A2BD9E1799BD40B675BD80C74C3CE0772CBC403D21BD00880CBAC02C90BC841F88BD58B14FBD6B4493BD273784BD88643A3D23F4163D0007793CD688DABBA32A423D5663073AE24F98BD006FFB3C345596BD00D4CCBA76D646BD2BFB01BD4069B83B9EFC21BDB0569DBD932B7C3DD727823D1B02833C9F368B3DC26D87BD482979BD9B2492BC2EF7833D002162BCE437A53D7B337F3DE82C0DBDB3169EBDBE2477BDE864883D7FAF9B3D8355A6BDC0ABBF3BA0292ABD6EB44ABD33B64BBD768748BDF621EABC40EE2E3DA6D437BD2BC07E3B2B2348BB9813423DF4298E3DB39A88BD2B34993C635D203DF606D73C3EE9263D9649A33BCA7DA7BDEB83F73B067613BD5BA60DBD8B91D03CEFDA943D4BA1F4BCD640ABBB7037A53DE660ADBC809DA1BCCF3AA73D13CF4A3DEB161FBCAB30483A7B08F0BC6379853D805DA03D76BF4A3CF30185BD205436BD6672D23C264CE6BC836A993D1416913DB6C9423CA096273C80A0B9BC5615CD39066BD7BCF6F1ACBC2647A8BD6C76A7BD360CF9BCA0096ABC2B893DBCE0181F3CA030C83C9E5C683DC89B213D06B186BCB60C2E3D84D89F3D1EE9A33D064F8D3DE6C081BDE792AABD56794F3A54AF83BDAB8BE33ACCD0913D480891BD7F87A3BD4BE6743C0BF8BDBCB6EF923C9B09F5BC00E3F93B6C00933D50B0EFBC56529DBDB6319BBDF02461BDDBE7DF3CCBE642BC16FAA13DA81B73BDF6FEA8BDF0BEFEBC5E2D91BDA3CF73BD46207C3D0015AE3CBB48AABC9B13813D978B873D13EA293D1BD6BD3C26B77E3DEEC949BDA6993EBD50D2CF3CF078A03C4B31963D33720DBDF6D3763D040E99BD00208B39271685BD1EC31ABDD63119BBDB9C2C3D3B41DCBC80D6C33CD65A2F3B5B27EB3CE27792BD0004153A6EA527BD90B9CBBCD016463DD02D7DBDF31A27BD0C2896BD180D083DDBAB8B3D38369EBDD61AC5BC1C8D99BD00EC6B3C38780CBDD618823BFB15F8BC30A80CBD53642E3D13489FBDC071603DF00E2FBD0094103B3B7FC53C36A40B3DABA6C73C4362463D667CD63C2B627F3DD2BEA3BD40ED45BCA857753D76264D3C4E7091BDC062523CC300733DDED5863DAB372ABCF6120B3CEB1AEBBB7E6BA53D58CF93BDABE726BC9BA023BD363D03BCAB15E4BAC04F5FBD20AD1CBD128192BDEBE9C8BC807D2A3CC0BD903D76F050BDA615E63CA01ECA3C9BC246BD2B55B73C8BBC463DA0AD303D8AA799BDC68E55BDAE1CA63D804E7FBC7B42133DB07D923CFB1A8EBCDA718BBD7823303D53EB443D56F69C3AC6CD343D20C38A3C20CA2C3C32B59F3D2078763DAB85D0BB5E0B243DA69985BC76C55DBDABA696BABB66B43C9CBE9F3DFE5B783D8B75723CD0B5733D4B241CBC5E0F743D13F6353D2091073D98FD0CBDA8F3633D96676EBCF0847D3D7B83A8BDDBA6233DC01E8ABBA666283D9B8093BD286117BD70371EBDE0F070BD584C633D5B8C1B3D26B1F23C403E77BD16CBCE3C3E32763D66FB1C3D6E5566BDF095833DA6661CBDD33B413D1B9F883D2E25343D7699003D30DE81BD7A2E96BDC66A7D3D9B42BDBCC66DDCBCCED0393D8BE3F0BC9BE4FB3C2B98843CD3B542BDA07D84BD803BABBB0BCA0A3D4662763D6B31543D10D8CEBC48E2533DB31D25BD565D03BBF818933DE0651BBCE636493D063F153D2E816DBD1F018B3D27AD993DBB73DFBCE03F5BBD4C1AA4BD56328F3B9B94EFBCC377093D5AAA9DBD07659B3DAF4CA13D903EA5BDF65788BC088A433DABFAD43C76E51CBCEE42763D02E3913D6F1899BD4ECC1D3D2B84183CC0C8033CF692A1BDF0F18C3C2E13693D6B42153DAE3431BDDCEEA03DB86125BDFBF7133D8FAD93BD9CCA9EBD3821A93D96D60ABD833316BDB6BA32BDB80920BD2BFFB3BB561F04BB5B3B5ABDC830513D863A86BC5BC964BD6B7E9A3C8C2DA9BD2E1251BD6BB6E9BC23A4273DD6E56BBCAFD68FBDB2F58EBDDB64C43C364525BD10AFE8BC80D21B3D8013D6BCABABCE3B23B4A13DCEAB2C3D1B72E93C43FD25BD400D7E3D60AB8ABCB6CD1CBD8E13163DE833413DE063653D803C33BC57468A3DD6497C3C902906BD80231EBB0091B33AAF1B803D00C56E3BC03A9EBB4660083DC47295BDCE357D3DFBE89EBC5BDB263D98C271BD26E4953DEBF9F0BBE6C6E73CEB80E63CA0F448BCD637B03CCB11373C4B0C343D56EB70BC6C1A9FBD705A99BD4A8BA9BD23C435BD7A6A903D388727BD637D8EBDFE3490BD9651F33C6B88BBBCA7F49CBD46B6C6BC40ED85BD6BFC0BBDCB0594BC130A65BDF48E933D4E21013D08629A3DB89694BD3406AA3D13AE2F3D964DF83B8808A8BD1BD625BDF7EF9D3D587365BDC03A853D187592BD28A12B3D93198CBDD0E3813C68AB083DF8291CBD2A0F913D9BC7DB3CD65F203DA01E39BC708947BD00DA31BA3B4654BD88E82E3D0BAA043CD6640CBDEB6DDF3C2B013CBB18B6753D4E186B3D061D343D36DB21BC0B9446BD86E5213D4E9C3EBDD209A53D60BF57BC0ED04FBD2E2927BDE051F2BCB3C81C3DAE6F4A3D1BA5B33C4A0380BD962797BBCEFA8B3D80282C3CD61F91BBFEB1943D8BF33C3C2664FDBC2B4520BB83E66FBD9A8A94BDDBC54F3D9613FD3B3698523CB6A017BD33AC6E3D00EA3D3D50EDFFBC1B68823C6BF0AF3C200F273D164FC03BB23192BDAF04A13D70239C3C1488A8BD043A893DE6F360BDF68ECDBCEFB6973DD3D4973DC41DA5BD6C8892BDD8D987BDA61D203DC82A473D9BDB95BC808E97BD96F4063D0BBAEC3CC3B111BD4BB7993D6065DF3CAE7F183DBE867E3D764438BC6BF36CBC02E188BD2092713C23D22F3DE0746ABC235D133D50AB8C3D9B671ABD7BBA5B3D0FBC913DF74C8A3D3BF985BCC6BE3E3D66E3CCBCCE10A93D70C7453DE08C373D961CC73B086429BD5BA0BFBC96CF003CDB18853DAB709D3D706D6DBDBE183ABD56336D3A76837DBC9B66DFBC4051743C333C3C3D06A8863DBAAE81BD27A4993D4BD36E3C87A0A9BD40BF653C5632883CD672F3BB58040F3DD08B8D3DBEB4123DE3849BBDAB1ABB3CAF4B87BD4496AABDC6DCA4BC601E423DFBF0D53CCE699F3DD6931BBBBBE4B73C2B7F263C88B6A1BD6BB0D33CF3B76E3D760CEFBC1891A5BD16E0E9BC6B8603BD9898753D18233ABD7B2FABBC38B304BDB0EF513DDBDEDDBC1BA13B3DD62AC6BB18CF3F3DCED1783D4BADE6BCB3D3743D2B13813C56E27A3CE8D6633D70EF3B3DA84628BDF8BC503DC0CE133C9B719D3D739B753D637375BD3B79B13CD0230BBDD8B89BBD50A976BDC0FC8B3B06D0C7BCD69FA5BB207598BC4EBA98BDBBFDFC3C0B980FBD0854963D70F86DBDB0DF25BDACDDA03DEBD31EBC603E7ABCA04D43BD580C5F3DCBE1403C130D0ABD60B73EBD3BF00DBD2095553C5343753D13E927BDF07BB4BC48E895BD109417BD3631513C008AA4BB12D495BD00FE50BB80BF84BDDB12A4BC80A0BE3B6B85F1BCFB629C3D2B287A3B5035163DF08BA4BD1696D0BC00B0553D5F28963DD8F5033D80107C3CA08642BC2B6D17BCDEBD14BD"> : tensor<16x16x3x3xf32>
    %cst_0 = arith.constant dense<0.000000e+00> : tensor<16xf32>
    %cst_1 = arith.constant dense<1.000000e+00> : tensor<16xf32>
    %cst_2 = arith.constant dense<"0x430B12BDE0C172BD8000223DF3B873BD56B1343BE0191B3D2081C73C2AFDA5BD28565C3D36A3873D3617023CCB2792BCDF39A6BD2BB162BC4BC640BD0B18DE3C801F11BB962150BC30BB70BD00CC993C2B75013B06F391BDEE00163D3F0A84BDAB779ABC36447A3DC2509A3D5647EEBB8E04373DB3E601BDE6A0C03C3B7554BD965A51BC167889BD6B5D93BC3452A43D76FD34BC40D9E2BC204561BC7BBFC03CD6D1373C13BD0D3D3B4E253D7EED73BD3F7DA6BD2B7624BD5003003D40516DBC676C8C3DEB71CCBC169A9CBBF427913D76A59F3C08BE48BDBB956E3D80E894BC3B640B3D5655693DB30765BDE65E0ABD2B942EBB00D20A3A83F69A3D1E042FBD7B2957BDA0B51C3D0B06C8BC88D72ABD48B973BD8BD0573DD38371BD8A5482BD4E3FA7BD70E2AB3CB800AA3DE037A1BC2BB1C5BBF729973D5A84993DBE6E5DBD7AAFA6BDFABCA43D406FFC3CAB38D73AC08D583C40C457BC5E9DA83D7B63993DE3B3A2BD4BDC063DF83938BD263475BD6BDF90BD9B4EF53C0038D23C442E9B3D33D1923D463AFB3CEA01853D9BEC083D06018B3C80C6893CD6FDF43BD0239F3CD3F794BD4BE5FBBCA8E828BD33AF2F3DEF7591BD233597BDAB8CC2BC401C17BDC6A6863C5B781A3DD6D6B23CC74D933DD6EEE9BC36570DBD6E204BBDAB94A0BD96E7C53BAB5319BDEB5EC33C568E3ABB43A0203D8B7E763D00DDC8BC8059913D3B888A3CD00F45BD387194BD56BD5EB9CBE38EBC0E301ABDA0CCC73CC82121BD86158D3CDF53A93D9B462F3D74188CBDE8D325BDC0693FBC169AFD3C8E94793D1B88883DBF7F9FBD2EDB6CBDDF76A3BDA073753C2B57E03C70DF1BBDF7758C3D63E20E3D0B7F77BD5806203DCBC8253DABC04CBD0070B4BBC811023D5B9C4F3D7BE276BD267C7FBD73DD8C3DB807673D86462E3D6374363DBEF7223D7E967EBDE0519B3CEB9C533D802DDD3BB3F8503D6BB32DBD180596BDB80292BDCBE465BDDB06673DEB3489BB76BC783CAB0CE03C609B8B3DCF538F3D93756EBD4756A53DE6A41CBDABC7BCBA43033C3DE087303D8E5C24BD8AD691BD3E52A6BDA012BA3CCB5FE0BC235C61BDEB35ABBC607091BC40C3433C7B64A1BC00479E3B7B3B103D6B58773DE0471B3CFBB8893CF6FD51BD006CBFB90B35A23D075882BD9B18CC3CEB9C473CBB497BBD20B8833C6B4BACBBAA72A6BD62FB8CBDAAE083BD338E553D43872D3DEBB08FBDD0DB93BD8CF5833D8BFA043DFB445DBD00B207BB50FBD7BCABC7723B4B2E513C0BF38B3C766566BDC68B23BD9B69853D3E3007BDCBB1A03DFBB508BD567CE8BAA0E83BBD206C203D96CC82BBCFE08A3D5644303D609DA53D586A6E3D2E9A87BDAB89933A5B03F43C8625ACBC4B32743CCB9E80BD76F012BCD6339F3DB39E933D00BB923B787621BDE294933D0F92903DAB9EA73A3ED882BD2B6E47BBC61546BD2095973C03D9173DFB8A873D769D993D2723833DEB9B88BD8BBF903C205E20BCFB802FBD40CC6C3DDE330F3DD62B823D165CD63CCFB59F3D5F5095BDB0318ABD966D2FBD2E54163D7F90A7BDEB274EBC0E1F07BDEB9AAABC00E3733D2BC572BC73DB833DB6A20FBC369D913CC63D8CBC0E66603D3E9E5F3DBE3974BDC0109C3D2BBF00BD06DB6EBD302C643DD6B1DFBC2B686B3DCB4579BC76B0A3BD9E6C623D463DC63C003CC13A605C7D3D3B56BCBC637D66BD204ACBBCB0ECD83C709F14BD006058B91EE756BD04099EBDE0A57C3C569492BA50A2A3BC06DA3CBD7667F8BC2E695DBDBE642CBD93CB13BDB00F943D70AB9B3C500147BD9041CBBCF3853EBD98666C3D2B9DA13C23E62FBDF04E18BD407A413CD6C428BB806EA4BBDB8BA8BC1C298A3DA6BE44BD33D11EBD90D378BD10F9663D7B2E8D3C0887543D3618B53C683E16BD6BAE4CBCC06021BCE020B13C171A923DBBA92BBD136A833DD6B09D3D60E59DBC130B7E3D1ED85BBDCB8FED3CB0C0063D672282BD4BCCFC3CEEF78F3D3618003C9399643DC0B3903DE058793CD31E48BD4B1D373C34D792BD408109BC2B5D70BCDB4CB0BC460F863DAB19593C90254E3DDAAF84BDBE39A7BD16CAFBBCE614403D56E5FFBBD61CA93B40E5083C20277EBCEB8E2E3C16B2A23DA256883DC494A63DCE7E00BD6BB5D1BB80E95E3DE6CEC4BC33F9573DD00D57BDFFC2813DE89A3D3DC3568ABD4808173DD3552EBD329198BDD614A63D734A1FBD8B6CE7BC567762BA1B3AB4BC6FD9943D8E173F3D23308CBD20569BBCA69C83BCC3E83CBDC89D523DD38F66BDA013D4BC381D083D9BCF7F3D38AB3DBD97BB94BDCE8E663D2BEC313C962443BC0A4DA53D6076623D56306A3C5677403D0B6408BD807CE3BBB09C9EBDA3B78A3D38E81ABDE2BC9B3D3EB4703D569CE9BA0624F83CA0011A3DC762AABD9260983DA612B1BCAE150CBD97EEA9BDE45292BD277B90BD26908CBC5BD6D83C9EED40BD4BCD68BC663D6EBD58FC82BDFC609CBDF0F7B43C34F48F3D1679F9BBA6158A3CEE5374BD70DF863CD650A7BB830473BD22E894BDAA4481BD9043FA3C0B7E1D3D6BD9A4BB9EE796BDB00BBBBC36A1873CB0A367BDEB7AD8BBA2B3A33DC35E2ABD802AA2BCD6EB52BC1618723D5056A9BCD6340D3D6220A8BD1B5D3E3D3B9B7CBD027881BD0039C5BA8E7656BD6B6A83BBE39E603DE8740EBDC0EA20BCFBBE61BD2B4885BCA8C64CBD9BCC9A3C6B6C953B5B193ABD404A293C6B038BBB6B3A503DEEA924BD53F302BD44CA993DB3731EBD94E58BBDEB26843B0B6C143D08051E3DA61FB4BC36E169BCBE4C8DBDBB228A3D58ED1BBD3BDE933CE3029EBD7043FDBCFBD0C3BC64F2903DAB68CA3A4640D7BC56B68C3AEFEC8A3D20723BBC33F8413DA6126DBD5641A53C000B80BAF0328C3C8BE20BBDAB1AE5396B6A9B3B6BB04B3D066163BDF641993C9094FEBC0078653AB0BBF0BC7B230CBD13602E3D80FFA83DA3E3563D20EAA23D40EADFBCC89F523DD692683B60FEE53CA37734BD006412BAEE145B3DF3951CBD539038BDD029083D2F268DBD33B195BD8BE13A3C066C263D00D62FBD86A2E83CC060F1BCBBC619BD007932BC40D1463D5B9122BD0088EC3BE675A2BCD689AABCEE1696BDABE42D3D78756D3DC6C5D93C1A9291BD8021323B50F79CBDFFC49EBDFE7271BDA83F333DB62E07BC0BC818BD5062F0BC763D47BC503CB13C9B76B93CC60BA43CC65167BDAB4F57BC5307713D368E913CA34FA93D70C89ABDAB6734BBEED6533D1601E8BB000D5E3B563AB73A38B5783D1077803C8099CABC3457A83DAB2A2BB86E4332BDB695AB3CDE856C3DD6B4A83B564D123D00FC9BBA0014C1B956A18FB95690C13ABE974FBD0BD71EBCD66345BC00B626BA766E71BC80765B3C73FE613DCB17F2BC56F5BABB58370FBDBE43353D566D2D3933F668BD4F02813DABA4B03B3B77D73CFE5645BDAE7D3C3DD018C43C4BC82ABCC607913CB3CD243D1B3674BDB0C09A3D076EA93D1BD8CDBC9F0A843DEB291E3C9B6219BD30AF0DBDF8C80DBDDB5EDFBCFA9E9E3D4F6BAABDDB0C0ABDAFFAA3BD4003AD3C08935D3D101AAC3C6BBF383D2B27803DC0988E3DFEF84C3D46C89CBDF0DE75BD70715EBD4BF2063C83601CBDB854573DFEB73B3D3B557E3D9017713DB0ACFEBCDED77EBD0B841D3C83DC1EBDA0D514BC33280E3DF041563DFB4481BC907F4E3D8095A93B60D937BDCE187C3D8BBD82BDA680F63C782E2F3DBC64893DEB52DBBCC65D7D3D1B3B033D327794BD079A90BD961D963D5BE266BD2E639ABD74588E3DD417803D50EDDA3CC0768DBDAB20513D46AF7E3D56AEF5BB7B3F5E3DCBDF66BDA80E763DDFCA9EBDA4A7A23D8E601BBDE65E033D1687073C8B2E023DE3EC3B3D28762ABDEBC8713CB61924BD47108E3D78C17E3D07A195BD634E92BD5806743D0E53443D7F7F933D085C9E3DC045073DB69C21BC289460BDD89FA5BD381A083D66AF443DA33612BD16F9D0BC5BE51BBD009579BDC6FB35BDF747A9BD3B9D9E3C40EFDF3BEB56403C0F9EAABD56A3993AF380A93DA82E1D3D4BBEC03C839080BDDEAB923D7BB90F3DC0308A3B1642EEBBAE879CBDDBF38E3DD6DBA6BB6BC3813C36A110BC522395BD6BE254BDF6F4553C13475FBD1872963D6C8FA3BD06E52F3D70FB183D9B5713BD706B50BDB0D2BCBCFB61903C33AA263DD6E28EBC6B51E8BB287C7E3DEB85C8BCEEAC8A3D27B99ABD6F7B81BD2B30953CD63A2F3D8B07693D43E7123D932C11BD131394BD3B0560BD96DF6BBDEBDAA83B56B09FBAEF2FA03D500FB43CB0FF643DD385603D323A9ABD90F570BDB39684BDABCF9B3B8C6CA2BD9CA091BD9BFCA9BD8860A83D0BC4EABC933356BDD8366D3DABF6DCBAB4329B3D80A3593B20082A3D2F3591BD634B733DA8D9A2BD40AB57BC7E29453D76BF4ABDA847A2BDA6EDA3BCCE3C803D6232A43DD843993DF67E65BD6B4D00BCEEAB6EBDA61A60BD9B96A13D385E0EBDB046B83C6044DFBC00D1FEBCFC9797BD201DDDBC803EECBC9B72A53CDC4488BD175584BD48C2943DEF14803D232653BD1320833DC6A58ABC689474BD56671C3CD0D9143DD3EE93BD46938EBC707C573DC323893D0B01703D00CF31BD5BDD5EBD0783A13D0090843BF7A68E3D80C1BB3C0B53F5BCA3A034BD50FE9D3D36B9823D64A099BD60C09FBD06D03E3D43DFA13DB0725A3D47939A3D563A04BD9BE3E13C6000023C4E2F7B3D28408D3DE6D2953C068EBF3C4093C7BBB8DC903D766359BC16B0453C9BEF73BDBAEB90BDC08385BD1018983DCFDF86BDC679F43CF8DF05BD76FA16BDE638C63C104AAABDE69B33BD560750BA332149BD24CF95BDD6CFAC3B46BDB8BC488A613DE66F773DC46882BD687167BD003C3D3CDEAF213D7BF3F43CAB35AC3C3B6E613D0871353DF0EF983DE0061CBC2BE92EBD4B0927BDD6F3C53B2FD5823D202D08BC605080BD008467BAD48E893D0AD6A7BD6BB5F7BBAB88C9BC9BE88E3DC60A2E3D1B73C1BC10D9493D6F63993D767D6B3C2BD11D3CEFF095BD1E3422BD764B213C9CBF95BD1E1451BD3BCCF73C50137BBD464AE73CD66EDFBB889EA7BDF01EDABC38757CBD807F07BD9EF7A23DF8D92C3D7655C8BC4699B33C4362AABDC3959CBD609B8BBD56D3223AA02F923D18C13D3DD0B6A33C26018A3D8B4E013C164BBBBCC6FE9ABD6B874BBCC0626EBC63A2173D00C5D9BCF0F891BC8B1CD0BC507051BD20710C3CAE0A093D67C3A1BDA02C5E3C5E854BBDE46BA9BDF416843D782F67BDD33C46BD8BF6543C6B533FBC06897BBD1082C23CD00AE33C5B14343DA6C18F3CA6CD313DD85B1FBD5B7882BCFB41943C289A15BD2BEF3C3DD603D53C86CB68BDC87690BD5E3D27BD80DC5BBCD0F62F3D20F1773DFAABA3BD160C9B3BB37A413D0BB629BCB63791BD9B4D2D3D06342ABD200B6FBCBBF66ABDDECF253D006C27BD00625C3B2005203C8BBD043DFBC2843CC0CC05BDCE9E08BD0025913C7C269DBD969475BDDB0F25BDAB1ACAB836C13D3C2B54F9BB4E421A3DFB580DBDF2CF9B3D03A42A3DB0FC5BBDD0AB8ABC76CD7DBD0F23A73DBB8124BDA87D7D3D324B9ABDE33C893D50DDC6BC98C4A13D9BBFE5BC6ED92C3D7A029E3D6B0BBE3BF3E514BD2E7A1EBD38BC9D3DA83D523DBBCAD73C38117E3DD274873DA0DE15BC647DA33D0B620C3DA6668ABD407576BC2B416D3C96CE0FBCD0412BBD33B940BD00B93BBC3C0E903D38022BBDF8E3073D9BED81BD50EED8BCC8F3173DEB2B7FBCE3F27EBD104B2E3DCB0B393D56F3C43C48EE183D802D383D7E8D12BDEB9E5CBC1BB7EBBCAB1487BC3B386FBDF28495BD16D9CD3CB0046ABD3EE60F3D70840C3D50CF96BC63294FBDB6EBA43D4CACA03D1A7BA4BD302484BC40AE173CB64CF43C2B280DBBAFE2A73D426DA7BD4378483DFBC00E3D90A9013D808847BC4B77F93C4035FE3B7EC571BDB382933DE693A43C98EF0C3D26C6F7BC60E1363CB38F4C3D30EB92BCA0AF3D3CEB27A13D82398FBD0B35623DC0E5113DE08A763D4BDF563C640798BDD6D498BDCFAE8F3D6B92293D96CBC73CA02723BCBBC6F33C9E50453D00689EBB426A9F3DAB12F7B91B35063DA6D0293D6EEC863D8EBE633D927F97BD1A0BA2BDD8E57C3D2BB582BB6B77143C9485813D2B8D3E3BF6399A3D4BD5F7BC38040C3D805FD8BC56DC90BD3BE84FBD66FAA43D4B9CF9BCF031E73CD6515ABB9FA88CBD5F0CA4BD132811BD402D89BBF33A38BD149980BDD8251FBDC83E393DF0A9633D061FEFBCF33187BD07C6A2BD56ED8E3D3B4EA13D56F7C2BA34AE88BD000630BC2B041EBDAB3EAC397A70A8BD38CA19BDD3B39E3DD0E22B3D4A6E913DAE46073D66C6A43C00234CBBFB23AE3CFB3EB43C085241BDCB650EBCAB6A083BC08DB33BEBD65A3DF31B2F3DAB0E723A043CAABDF36945BD1853073DE03AB63CB6EA81BC0EB105BD90DC923CAB6E81BD7E1A3ABD2062703CC37381BD800ED93C006061BB005D4CBBC87783BD60677DBD9018EA3C367469BC56BC4E3DC0ADB5BB7B4097BDDB2E813CA6FA903C90F8083D9E18343DD6787D3CB344523D4BCA293DF8AF7C3DEB0009BDBB92A0BDC3B381BD4E58883D433D8EBD4B235ABDB70C9EBDF6EBC73C5049973D9F5E8ABD0A708CBD8B9C753C03CB9FBD13125F3D10ECE3BCA0824F3DAB45E0BA0AB09B3D73C64CBD8E7F423D5B37EA3CC6B6A43C00BAA8BC4FA1A53DB618ADBC46C595BD7014843CE85045BDCBC74A3CA8012ABD7EBE8A3DE60A873C406B68BD4851A33DD6C2083C30E0193D63C0093D0624A53D8662043D0B79E4BCD2F39E3D360D5EBD5002FE3C283E5B3D16770C3C50D0DEBCCED7543D53441CBD96C88DBD56D5B23C7089F2BC6872833D08968DBDABC415BA562B66BD1B04093DAC07A73D16A14BBC809FDF3CE0933EBC165471BD90BA5A3DEB21E93C50D0A1BCE3C3053D488A5EBD66FF833D4EC83CBD0BF07E3DD6CA7C3D18083C3D8231853D962C983D436882BD62E09DBDFA098CBD0B2FCCBC400EC53CAB28673AC0EAD3BCEB8EBCBC5B024ABD6CF09FBDB60282BC2B86193BEFFA81BD9B28E13C76054B3D86AE02BDC0EECB3B1269893DD6D40BBB802A66BBE03D353DF6EA943C833D533D6EDD5F3DC3342F3D8B4125BC60DE5DBCABB4843B201BC43C4BD233BD863E6CBDA0D11DBCC3AF14BDBAA48A3D3FDA913D067AD0BC58C2373D56D53538BFC88CBDC0EA1EBC8EF4433D3BAE2BBD6BF7EEBC206B14BC00DC60BC3EAA2E3D9B2588BD56D7A9BBFCEE9C3D3E21183D13B49FBD9B5392BDA66BFDBC168BD63C56CC89BDFE308E3DBB028A3D00DB51BD165318BD1617503DD02BCE3CEFA4883DB3C7463DE75B87BDD6DE9E3C8EB5263D6072063D2666B93CAB7247BA56B48EBD2293A4BD600FA53C4406853DBB198A3C0E5E4B3D60287B3D56CCCC3B6E21813DBB19B73C8B4C8FBDEAFC933D661872BD5AAD9BBDB32B9ABD8088A8BB96A19FBD23F478BD209226BCEB32233D2635D2BCD7EC85BDB0010B3DF02395BD23214BBDF6C43D3C8BA4A83C23C136BD56B9FB3A50F215BDB7B3A2BDD8F5A0BD2086353CBB1D75BDE8343C3D3B01AE3CA01594BD5051A1BC5EED3B3DB26D9F3DA0D000BC0B306ABC3E2B6C3DC04B94BB2B130EBBC0606B3DBF929A3D0E024CBDCB490ABDF66F86BDCB01B03CA8CE9FBDC0DD553DAB3C6E3D2E0A173D4B13343CBE5F1ABDC089B3BB883E2A3D563D4DBC00D4F83B60BEE63C16C9D6BCDF6081BDE8D5563DE3D164BD664B9A3DD66B483D7E2050BD43F72EBD06B35A3D5FA694BDFE0771BD809A95BC101219BD6B30293CA0CAEE3C9BFFC83CB623333CA0F8B03CD08F77BD165EFA3C03E5A7BD808619BC56270D3DAB6F27BC8BB6C2BC04E5A93DCB4A2FBDD00164BDE04C9CBC6CC380BD6EF907BDAB5899BC46BC87BD2B5E8EBDA013833DC028A33B7342253D10DC463D06B0863CC606D4BC8BE1EEBCD6B6DF3C3B9CEFBC572E9B3DB68B783DD6F3753B00AEA7BA4064A3BC205D3CBD86018ABC387711BD604F7E3C3B560EBDA34C93BDB63F163D3ECC2DBD80DD6F3D92F2A9BD93F107BD76A3DD3CA63EA4BD562055BDE6B77EBDD6ED1ABC489C56BD06DF193D16B0153C80F49A3D9E842D3DABD043BB1346A53D8054403D5B0753BD76F2793D40B335BD307A073DABD4473AB678523DD2B197BD330D0B3D785235BD14D8A63D00000A3D78B282BD1C9F87BD4013163CBB8AA93CBB5209BD7F468EBD902B7C3DABF5833AA4B394BDE899263DB3CF7DBD8F77883D961C013D1B4F90BC00C8933C56556AB8681321BDE2D7A43DD62EF7BCB88F94BD3C91833D4009753CCC8EA3BDC664F1BC46AD023D466736BD7ABD893DABA2A83D4E0AA0BD2CAF983DF3400DBD90EB5B3DAB05903C68C099BD5C0A9E3D6382083D8E13233D6B3F36BD8B1B97BD30957C3DE071E23CE3E3823DF3F84D3D4016BEBBAB0DC4BC236A8DBDA6D8ADBC3B0413BDCBB55ABDFB8D683D58F671BD2BF4CF3C18C643BD1695BC3C56B1F93C10B0873DAF2B9F3D809F443CD691A0BCB095B33CE0E168BC58EF213DAB63913A10550BBDA687D63C63038F3DE8712C3D7E370FBD9695743D9B5F223D4800A23DABDB963AA0525F3C1B04FFBC26B499BDDF3D82BDE69D74BD60F82BBCBBBD823DDCEC8CBD8B33A8BD6C369ABD538F87BD86413D3D98710BBD10E5DA3CEBD9483CE6BB7BBD50BD2CBD56C2493CE01860BC9EED093DCB745ABDD6F676BDAB550F3C2B5E9DBBE0B73C3D10FB89BDA67BA33DB6BC89BD4B586A3D328B87BD6395923DE8C54CBDBCB19ABDEB61AFBB0322103D2F84903DE7F69FBD4BCC83BC739E89BD8B30233C860030BD6023563DC431AA3D56E5C3BA40F596BB8734A83DAA5E913DA67CA43D56D88EBD70B1DEBC54AE9EBD00C9B1BA4BA69C3D83D3783D00BEE53C3BEF4EBD6667C83C0B06143D6E2E4A3DC86F463DEEFE903D40B67ABC5669DB3BCEEE4F3D061CC5BC5B7FA4BC80CE123D1658883CE8EC7C3D689F0DBDC8A252BD3EE67ABDE3818F3DAC23873DD63502BCD00E4C3D66CD64BD96FF88BB886178BD2ADF8F3D280FA63D477B8CBDCB10923CFBA4C4BCE6091D3D58D802BDB0B6BABC3E7179BDDCC987BD2349333D7E844C3DB66E68BC06CEECBC233B1ABDF65D0D3DF049FA3CE62250BDE486993D9867553D3329753D4630683DE31419BDBE2C9F3DA3CF93BD361815BDB06108BD463A803D5609F1BC6B91D2BBAB332EBC88DB63BDF659E63CE0F566BCBC1B96BD0B36ED3C0CA384BD3B4D0FBDC08333BCDB31853D82989EBD069133BD53F49DBDD34B52BD46A0F6BC1E2E9DBD66B2683DA0A07B3C305BB7BC53DF0CBD469F363DAB9AB9BCD8244F3DC6C56ABD3BBB183DD8B136BD68C3513D68B0493DFB13BC3CABE19BBDDBA6323DDB83A5BDD6EB363CDF5791BD26191BBDDB1A7D3D63DD3FBDB6DDB23C7E228DBD4B834A3CAB0BA6BD3BDDCABC165A91BB302039BDFE0A2CBD00F63BBB3AC8893D6875043D1BE029BDE8B0453DF629B33C33CA6EBDF6B64A3DC670B7BC2BF8343D5AE7853DC6A4B03CCB514A3D08470BBD747095BDE44C9B3D201B3D3D6F6F87BD93218F3DAB96B6398B0203BCB6E7193DD017503DA0E6963C1BC8803D1073383DB6473A3CF299A7BD2E45963D80DAD43CE05006BCD04784BC48F0A9BD0B71853CD8DD70BD2C4A8DBDDE1F3C3DCB3B0CBD8B84123DABF21A3B48E10C3D47C39ABDBBBAF63C96EEAABC2B46743B56B490BC1BB1E83C4686A13CC7198FBD8072533DE78995BDEB4EB1BBE00692BD560D223A807791BCF8A03DBD508467BD4B029ABC03D12BBD0A989A3DE01706BDAB1A9938BEA937BD00E5073D40D10EBDE0E731BCFBCE83BC64918D3D4BE894BD66DE5EBD1373813D10D0953DDA358FBD8BB14DBDBB41953D0053793BC69AD6BC1E6899BDDF4A98BD0857413DD6A0193B8EC348BDEC5A84BD1B0825BD6EF5453DAB2DC63BD04630BD00089D3D80B91ABDA07C78BC9B6B0C3D6BA07EBCDB2A053D7E2D743D2695D43C505DFB3CD65979BBD6FA0D3DE797A0BD1024C8BC663A8BBC80DF60BD980542BDDB86263DE3FB61BD0653A0BDEBEA283CF01BB8BCFBAE6B3D2EB3073DDC7E91BD165DF73B902F83BD27DA96BD334B283DE8345ABD0002D2BB14D7913D03764CBD53D555BDDF63943D2B4725BC1880313DDA5883BDEFBB9E3DEE5E893D3C3B8B3DD6C938BDEE9245BD4EBD0D3D00CC673C24DE813D2B4B663D2738A5BD98CD05BD6B40583D963C15BC1B8387BC8BB967BC48EC72BD3740893D30D9113D289D083DB823A23D469D853C90D045BD33ED213D187F693DE82E973DD6D7E7BCF6CE693CE361543DA6E54DBD3E0A933DF62D923D4B851E3D804383BBA8B57ABD00DC4ABB7BE2EC3C08568A3D3EC32FBD3E7358BDB079A93C9EC451BDAB19F5BBABB379BBD0CC9DBDDF0F80BD335FA9BDF89C953DC0EA36BC60BD4C3D2BA6923DC0C035BD734483BD4E2B0EBD8BFD7CBC5795963D40CE01BC9695D83B10509ABDD6F4053D809498BD7860A3BD36CF5ABC2E9F64BD80B9413DD61B74BCAB4A523CA69B3CBD065655BDA6F074BDA0E856BCD6CC11BD0474903D0683823D8634A43C60322D3D907271BDA8CBA1BD9036A9BC936444BD96D40F3D6B5E7C3C1892A7BD9F63803D16592FBC6BEE403CD8FB4C3DEBABCABCF647EA3C56A96B3A86F8A4BC5693FC3A2B039F3C003A7ABB06FE133D5639893BCE22713D804A23BC5BF493BD36AD52BC23115F3DC00E15BCDBFD61BD035351BD286A3EBDEB5572BCAE4C1DBD82729EBD530E47BD564D36BA1B1FCC3C568B64BB200C70BC76AA77BCE22084BD563CD2BC1896133DC313303D835C77BDABBED6BACBD37D3D0642083DA098FD3C638F71BD6B6D80BB0A5081BD00EA9A3B6ED86FBD2B642B3C26A9493D0BEA81BC2B4805BC0689EDBCEB724B3D6B8D42BC2B8B883D38C70C3D228986BD8AFC9EBDDBE1263DE8AA7CBDFE9792BD5322343D70CEA5BDBBB6A5BD56DEF9BB3B9785BCAEC84A3DE80093BDC34D253D7012823CA09B72BD6CB58EBD40DAC13C6626DD3C5827233D004C173A20F47D3DA6F5263D13A13E3DFB47303D404170BC765E00BC96C12F3D4B61F7BCE71AA6BDF6FE1A3D5EA187BDFEF43FBD4E884F3D003D8EBBAB8FBD3C189445BD18203B3D7FA7A73D0B1CABBCBB4CACBC433C833D669393BD1674B53C80686FBCF006F6BC0084BD3C4B7CA83D66C965BDE81356BD7EB714BD5675973B2E2AA3BDDBC88F3C00D6A0BC0CB9823DA31140BD8B55D8BC139335BD48F6293D20ED5EBD301B21BD56BB203C20B25D3CEB9E573D8BD30E3DE3928DBD5BF36DBDABE2D43CEB0017BD9673C1BB1C44A93DC653873C6BDE3F3DEED78FBDFC2BA4BDB6D773BCF60254BCC0D145BD8F389DBDA62A813D868C873D128D9ABD2BDCEABC9049EBBC80ABB8BC56142EBDC688FCBCC033C0BB5663B33CB69B4C3CBB2E783DE6638E3C56F4E5BB9B65413D76585BBC82AD93BD2078053C605A24BCD682FEBB707C19BDEB9FE53C9871443D0C6488BD186E3FBD3F5E823D43008FBDE63DFF3CD6F37BBD63548EBD3EF528BD96EDA43D3A9D893DF83F28BD60A7773DCE294C3D56F1DDBBE64D993C327E94BD0653C43C985A3D3D60445C3C888972BD87AC8CBD704E8DBD6305563D007862BB906F81BCAB1BEBBA2E605C3DBB0FA73C344CAABDE805A9BD80553CBB56430EBDB6A8DA3C7F71893D703A00BDCBF838BC0F19813DDB32B93C20E41C3C1B1CAA3C06397BBD1E869FBD13C7223D46E9B9BCDE39A7BDEB6E4A3C80748C3B48BB07BD107C603D30F9203D5610203B1073F53CE33D653D86D14D3DCBFC393DE33F533DCB8EA53C385605BD4B3EF73CD6A72D3D165E5A3DDE60793D26008CBD8297A0BD607471BC3427A83DA0909B3D00DB853C56F2143DFEB3683DE088753D566F413D0648A63C4BD25BBC78F486BDABB662BD40D0083D467A8CBC2758A93D96DE853D973EA73D4E3F5DBDCB953DBD0217AA3D3643A0BCB02342BD26C700BD9A88A1BD2ED0A6BD469517BD289C3C3D3B749C3C5B70693D8B4B2BBC360DBE3CC061A5BDC03CD93B187D6F3D0BD3A5BD660BD73CC0DFE03B56D5973D2ED1343D630E903DCB646EBCEBA2083DDE2C153D8B1892BC9EED6FBD00BCEABC1E733F3DAB8C01BDD63FC7BCC0DEA2BCE822843DE0E0233D135232BD367625BCE0A71FBC009C5FBCD89A253D33475D3DF038D13C56C9B6B9CBBDE4BC5608C83A7AF58FBDA0485FBC4628193D4016743CF6367A3D50212F3D564CAABA0B60CDBCA6A37FBDCC73A0BD5B6190BDD005BABCDC7F96BD160949BD361EA3BDAEBE843D1385433D2A7883BDF371623D901B9FBC36446ABDEB6C01BC131134BDF0D2D53C5B6E943C6C65A3BD06D1F1BC004B1EBD8E858DBD602D59BDAE6D8D3D80F62C3BC672EC3C76386B3D7B179F3C32A5823DA6637FBDF3E87D3D76DF3F3C33B9593D20A9303DA8AB7A3D605AA23DB63E13BD1E9455BDFE550BBDF04381BCE6774C3DC836333D90BEF3BCCBE484BC60749DBDEBF572BCC80B50BD16AD513D00DB763DB0E4C7BCF3136EBD86F6DABCC00A54BC80A118BBF671533D38276CBDCE915B3DC608523D360D8B3D03F81E3DD6B006BB78C20EBDF03AB1BCF61524BDD669913C40FED93B4B32E4BCD617B23B0090203C8651A83C16C59D3D0BAD09BD761E1E3D26B2633D5AA2813D265BEE3CDB9D1CBD1AD99D3DF691093DBBDC0ABD8008E4BB8E6FA3BD703992BD968C9E3DEB9E4D3C1B8640BDD8E8853DB096F23C30AE6C3D9EAC3D3DAB1ADCBA2BC21CBCA6A08CBCAB59AEBA1E7450BD5650CE3CD067763DD78C893DFB1A2DBD564EB53CC660E63C4E02653DC63AF53CD6AF61BC1BE937BD003B69BCA668AA3C501369BD56A7743C0BA461BCB3F13A3DAB0390BA22979E3D9BDF253DBBE662BD94F38B3D00586F3D9B59F33C8062943CA4BC8F3D536825BDCBB3A63D409E43BDE37994BD1E2F9EBDCB2DFFBC535C1B3D301FB33C2B14153DCBF04DBC2064D7BC00F156BCFB3229BD784F65BD"> : tensor<16x16x3x3xf32>
    %false = arith.constant false
    %cst_3 = arith.constant 0.000000e+00 : f32
    %cst_4 = arith.constant 1.000000e-05 : f64
    %c0 = arith.constant 0 : index
    %c1 = arith.constant 1 : index
    %padded = tensor.pad %arg0 low[0, 0, 1, 1] high[0, 0, 1, 1] {
    ^bb0(%arg1: index, %arg2: index, %arg3: index, %arg4: index):
      tensor.yield %cst_3 : f32
    } : tensor<1x16x56x56xf32> to tensor<1x16x58x58xf32>
    %0 = tensor.empty() : tensor<1x16x56x56xf32>
    %1 = linalg.fill ins(%cst_3 : f32) outs(%0 : tensor<1x16x56x56xf32>) -> tensor<1x16x56x56xf32>
    %2 = linalg.conv_2d_nchw_fchw {dilations = dense<1> : vector<2xi64>, strides = dense<1> : vector<2xi64>} ins(%padded, %cst_2 : tensor<1x16x58x58xf32>, tensor<16x16x3x3xf32>) outs(%1 : tensor<1x16x56x56xf32>) -> tensor<1x16x56x56xf32>
    %3 = arith.cmpi eq, %false, %false : i1
    cf.assert %3, "training is not supported for now"
    %4 = linalg.generic {indexing_maps = [#map, #map1, #map1, #map1, #map1, #map], iterator_types = ["parallel", "parallel", "parallel", "parallel"]} ins(%2, %cst_1, %cst_0, %cst_0, %cst_1 : tensor<1x16x56x56xf32>, tensor<16xf32>, tensor<16xf32>, tensor<16xf32>, tensor<16xf32>) outs(%2 : tensor<1x16x56x56xf32>) {
    ^bb0(%in: f32, %in_6: f32, %in_7: f32, %in_8: f32, %in_9: f32, %out: f32):
      %10 = arith.truncf %cst_4 : f64 to f32
      %11 = arith.addf %in_9, %10 : f32
      %12 = math.rsqrt %11 : f32
      %13 = arith.subf %in, %in_8 : f32
      %14 = arith.mulf %13, %12 : f32
      %15 = arith.mulf %14, %in_6 : f32
      %16 = arith.addf %15, %in_7 : f32
      linalg.yield %16 : f32
    } -> tensor<1x16x56x56xf32>
    %5 = linalg.generic {indexing_maps = [#map2, #map], iterator_types = ["parallel", "parallel", "parallel", "parallel"]} ins(%4 : tensor<1x16x56x56xf32>) outs(%0 : tensor<1x16x56x56xf32>) {
    ^bb0(%in: f32, %out: f32):
      %10 = arith.cmpf ugt, %in, %cst_3 : f32
      %11 = arith.select %10, %in, %cst_3 : f32
      linalg.yield %11 : f32
    } -> tensor<1x16x56x56xf32>
    %padded_5 = tensor.pad %5 low[0, 0, 1, 1] high[0, 0, 1, 1] {
    ^bb0(%arg1: index, %arg2: index, %arg3: index, %arg4: index):
      tensor.yield %cst_3 : f32
    } : tensor<1x16x56x56xf32> to tensor<1x16x58x58xf32>
    %6 = linalg.conv_2d_nchw_fchw {dilations = dense<1> : vector<2xi64>, strides = dense<1> : vector<2xi64>} ins(%padded_5, %cst : tensor<1x16x58x58xf32>, tensor<16x16x3x3xf32>) outs(%1 : tensor<1x16x56x56xf32>) -> tensor<1x16x56x56xf32>
    cf.assert %3, "training is not supported for now"
    %7 = linalg.generic {indexing_maps = [#map, #map1, #map1, #map1, #map1, #map], iterator_types = ["parallel", "parallel", "parallel", "parallel"]} ins(%6, %cst_1, %cst_0, %cst_0, %cst_1 : tensor<1x16x56x56xf32>, tensor<16xf32>, tensor<16xf32>, tensor<16xf32>, tensor<16xf32>) outs(%6 : tensor<1x16x56x56xf32>) {
    ^bb0(%in: f32, %in_6: f32, %in_7: f32, %in_8: f32, %in_9: f32, %out: f32):
      %10 = arith.truncf %cst_4 : f64 to f32
      %11 = arith.addf %in_9, %10 : f32
      %12 = math.rsqrt %11 : f32
      %13 = arith.subf %in, %in_8 : f32
      %14 = arith.mulf %13, %12 : f32
      %15 = arith.mulf %14, %in_6 : f32
      %16 = arith.addf %15, %in_7 : f32
      linalg.yield %16 : f32
    } -> tensor<1x16x56x56xf32>
    %8 = linalg.generic {indexing_maps = [#map2, #map2, #map], iterator_types = ["parallel", "parallel", "parallel", "parallel"]} ins(%7, %arg0 : tensor<1x16x56x56xf32>, tensor<1x16x56x56xf32>) outs(%0 : tensor<1x16x56x56xf32>) {
    ^bb0(%in: f32, %in_6: f32, %out: f32):
      %10 = arith.addf %in, %in_6 : f32
      linalg.yield %10 : f32
    } -> tensor<1x16x56x56xf32>
    %9 = linalg.generic {indexing_maps = [#map2, #map], iterator_types = ["parallel", "parallel", "parallel", "parallel"]} ins(%8 : tensor<1x16x56x56xf32>) outs(%0 : tensor<1x16x56x56xf32>) {
    ^bb0(%in: f32, %out: f32):
      %10 = arith.cmpf ugt, %in, %cst_3 : f32
      %11 = arith.select %10, %in, %cst_3 : f32
      linalg.yield %11 : f32
    } -> tensor<1x16x56x56xf32>
    return %9 : tensor<1x16x56x56xf32>
  }
}

